300
body.stage1.0.0.weight 216 3d50321b 3dbbffb6 3cf0baba 3d9e1493 3da1eb8d 3d321263 bb180b99 bd1c0d8a 3ce96794 3dafe70e 3dd32017 3d44229d 3ddabf06 3dfef52e 3dc7a78e 3c51677d 3b452ff9 3da738df 3cf3c3db 3d644223 bb9f96ff 3cf2abaf 3d0e7e11 3c66eded bd4ce664 bd82c895 3ca9b627 bde79bb3 bd8ee9f0 be1af5d7 3dfa7b63 3e444085 3dc064f7 bdf99bad be14a157 bda02ab0 bdb7af3d bd1e8391 bdb96dbb 3e11f1e9 3e581e4c 3e03e001 bddbe39a be0fbfee bd96c2ba bdc48507 bd88d691 bddd5ff3 3de62c30 3e13c6aa 3d810aa4 bddbaa0b be352b5b bddda62f 3ce3dfbb bc6a7662 3cd42226 3d822551 3d065ebf bb3713d0 3d9b9c83 3d834480 bb856950 3d951229 3d02bc44 3d79f2d8 3da25ec2 3e29b041 3e0bbbde 3dd6da6d 3e52c2f4 3e159c2a 3ac2216f 3caef531 3d39d973 3d831a4d 3de6f4d8 3d8a60c3 3dea2604 3e2adcde 3d9c1c75 3d2c5579 3d75eca3 3ceda71e 3dd51683 3e3238aa 3dfb4a95 3d955345 3de0f929 3df4fcc1 3d6c2223 3c29734a bcc0a109 3dafc237 3db611dc 3d174bff 3d831047 3d8f11fa 3d9bcd4a bd3483f5 be119758 be3a0438 bd1bf08e bd91ca6b be028ab6 bd333f9b bd8d1e40 bd89fb3b bbe512b2 bcb6686b 3d43fb11 3c1dd72a bd06fc98 3c37edb8 3db7bdea 3d2180c7 3ca9e978 be004ad2 be01c295 bc9b02cb bdac2a24 be0f1f0e bd38853c 3c5a2c1e bd0d66fc bd02e0b0 bdc96be5 bdd3cfc3 bc9449a0 bd4d5135 bdc49d97 bd3963a5 bbab7847 bd655eee bd886a92 3cb13efd 3d98e395 3d20a3db 3c2e4905 3d7e0a01 3daafa7c 3d123418 3cdb38e2 3d99b961 bce50382 3d1cf5fa bc3ef518 bd49834a 3cf3cd0f 3d57550f bd2d5ed1 bc843fa6 3d40c7b0 bd1e650f 3d76c77b bcbda6cf bd798de3 3d6a4026 3d20ee91 bd401bfd 3cce6af6 3d3964c1 bcfcf329 bdae0084 bd8ca6ef 3cba2af9 3cb1d10f bc43aab8 bd0dd1bc bd5d5cd1 bd0e26e2 bdafeb37 be069fdc be00893a bd5d4614 bd2934df bdb384eb be00a605 be0deaa7 be01f64e 3e08b3f4 3e09f22b 3e1dfd20 3e72d396 3e95a836 3e774e24 3e22be10 3e330b26 3e31bcc5 397fc656 3c2a792d bb7f4f88 3b4a2841 bbdba72c bb2f5c10 3c33e111 3be3839b 3cbeec72 bab4bbf6 3c36f9df bb1415f1 3c094aaf 388b0e0f 3bcfad2e 3c5c3328 3bbe2d69 3ccbdf99 3b26e22f 3c6bb58f 3ba1f199 3bb58e7d 3b2fc7b2 3c3c9ae9 3c814261 3c65b822 3d08dcbc
body.stage1.0.1.weight 8 3e025b02 3de830f2 3dc79d97 3e82a836 3da1db7a 3d5f10d0 3e815741 3c1aee17
body.stage1.0.1.bias 8 3e5281ba beb244f4 3e39ab11 bea42ee7 3eb25b15 3e05180d be839b1d bea662a0
body.stage1.0.1.running_mean 8 c2150ca4 41c10608 c295a5a0 c07b466c 422a9c28 c160d459 c204fc96 c10392d4
body.stage1.0.1.running_var 8 4570d20c 44bdbce5 463e8836 446be113 4541a83d 4454b571 446663ab 43123462
body.stage1.0.1.num_batches_tracked 1 47aff500
body.stage1.1.0.weight 72 3d981a13 3dc6b627 3e84a417 3d225172 bd4655dc 3e8320c1 3d9009e7 bca15be3 bbf3aedf bd348895 bd90003a bce001cb bc851132 bede1fe5 bc9f4ba5 bdc93fad 3e4c6320 bd618d98 be2d6ead 3f3cb473 bde0de43 ba82eed5 3dca51c0 be170edd 3d15097e bd4903fd 3d7c7fa5 3b56aa5e bcf3a013 3c89df77 3c2d6bc5 beff4fc5 3b7a1a33 bc455f92 3c90974b bc12f6ae 3dcdc9b2 bf19b86f beee5534 3d7f0276 3eb6af9a 3ea60236 3e33702d 3f0715fd 3f0c7627 3c9808b2 3c92d656 b939a8db bcbd4c22 bea7fc93 3ccf1e3b bd205a96 3dad2440 bccdb347 bb6e4678 bc115a51 ba49d500 3b61c3ab bef08ab0 b9cb4f0f 39deab6e bca697ae 39e55595 3e087e95 3e5c6d48 3dc7de7e bdad80b8 bd19d439 bd279528 bd388651 bc1f4d63 bd220a22
body.stage1.1.1.weight 8 3e31b328 3e2cb567 3e283fd8 3ea636d5 3dbdcf39 3ea44293 3ee44e28 3e98eaa0
body.stage1.1.1.bias 8 3e93ead9 3e89caec 3ea05e2e 3d3ffaf2 3e9fdd7c beaf27aa 3b2393df bdb193b9
body.stage1.1.1.running_mean 8 3e16ea44 3ca0cabf 3da99207 3bd4a141 3eb7180e bd0f6094 39bab2ac bbc7a355
body.stage1.1.1.running_var 8 3c0642aa 382a083c 3b06fff7 3b012c38 3c071238 39648e0a 3b365cb9 353fea47
body.stage1.1.1.num_batches_tracked 1 47aff500
body.stage1.1.3.weight 128 3d7716fb 3d9eef79 3d919117 be35bae8 befbcdea bbec124f bdeb2be0 bcb8838c 3d1d7820 3c927cc0 3e399211 bb80eaaa 3d095ec6 bbd87048 bdb4024a 3d80fd5d bc4a4ac2 bd34a7a8 3e51e7cb 3dfaeffc 3e0c0480 3dc413f8 3dd70a60 be776095 3e7dd836 3cb8f373 be7c0a12 3d3264c6 bce5d732 3d239871 3d198dd8 be1f1c9f bd92bd13 3ce7bd27 be43ea41 be1664c7 be1def8e bdf45bb0 bd99c267 3cba3813 3d7e3499 3d47c7bd 3ddc1a5a be873a2a bdb65593 bd78db0d 3e7544e1 bdf660dc 3e3935e9 bef27744 3d51c47b be0c757f bd1aa665 bbe04578 be0fc2df bcfc1f8a 3c5bbdb0 3cc5c737 3a4aaa26 3ce65d65 3ce9fe3b 3c655fb4 3ea5ca81 3d00522c bba716d4 3cb5424b be96494c bdb72e14 bd82338e 3af7cbff 3cf2f4c6 bd78ef19 bcd0212c 3cd78b01 be88a0c9 3cdde37d bbaf9b65 3d5bfe1f 3c4c629d bc9428fa 3ede13e3 3b0a3189 3cfc98ef 3d4fd3b3 bac52559 bdc7500a 3c212f63 bbe04b54 3de60a39 baf07b1f bcd1090c 3e40c8ef 3db4f6b4 3dfd05ef 3dc584db bc1b280e 3e373113 3c22bc41 3e40e133 bd81f090 bd849cae bdf4604c bda7350c 3ba2ffb3 bdc253f4 bd043647 bd80d8c1 bdb60209 be4f2cbc bd4ac040 bd317a79 bd8d9cba 3c309386 bc8748ca 3d8945f9 3e1bbf49 bcca9e24 bd5695a1 be9d5caa bd7eddbe bd10ce50 bcb6edab bd8b9aa3 bdf8e4fb bed3dd2e bd3000d5 3b10b4c5 bcd389b8
body.stage1.1.4.weight 16 3dc1cc07 3e558654 3cd5b357 3dc6ba9d 3cfc71e3 3e0cce41 be359761 3da899d4 3d768711 3e031f0a 3dabb90c 3df3cdf7 3d9f57c5 3da28cb6 3daf3e3b 3dc1739a
body.stage1.1.4.bias 16 3e10aa99 beec77d4 3e4f7556 3e909612 3e92d646 3e53c9ee 3e2f0d72 3e8ee1a6 3eb90b81 be823f96 3e585d61 3d85d403 3e305ea2 3e38d477 3e21c13d 3e544dd0
body.stage1.1.4.running_mean 16 be010374 3d958eb1 3ded38f4 3a39d115 be12cbf0 3d0cf41e bdd0a710 3d6b1f43 bde9fed2 bda8b038 3e142e39 3da535f0 3da3ffe6 be07969c bb014740 be37e05f
body.stage1.1.4.running_var 16 3c2e7bcc 3b081c72 3a260b50 394cd328 39558583 3b1329aa 39c03d03 3a9c09b7 3aaf0f58 3b1ff4fa 3bccf853 3a2f0998 3bf54725 393d5482 3a9ff0b0 3a898a7c
body.stage1.1.4.num_batches_tracked 1 47aff500
body.stage1.2.0.weight 144 3d51822b 3df8e794 bba84de7 bd28db93 3ade028e 3d8434a3 bdd1f434 be323b76 bcfb3e9b bdeb3b2b bd24a20f bd20c311 bc906492 3e3cde37 3e1f8658 bd9b30a1 3d99d19c 3dae2ea9 bd528b4d be73971a be7c89db 3d981186 3e9a01d2 3e98846f 3c902b43 bd56fe96 bdc1b8a6 bc376d2e 3d9eb2b0 bd16e872 bdfffd4b 3ee9a930 be9a2c7f be06854c 3e65dacf bdea48fc b89fd3a3 3cc44f85 3dbb7139 bd2aaaa9 3e3701f5 3e5c5fa1 3cb9da3b be1de819 beb14661 be32693d be4a4795 be0b3da0 be773712 3c5c9b79 3e86251b be253067 3e081ef5 3ef25b79 3e0d1513 be4181c5 beca8df3 be0b01b5 3dfaf391 3ea80eb8 bbba7d70 3df2ece4 bb7026e3 bdbabc0b bd985191 bd8b099f be8573f5 3be90662 3e5aaede be0ccee7 3db8ec2f 3ea82af1 bd4c1121 3dd8970a 3cbde468 bee25536 3e726137 3dfd6c09 be7cc39c 3dc40eed 3d49c367 3e0ff97f 3eada429 3d83379f 3e347b5c bd17489c 3cadad79 be745b2a bef26644 3d1a8ed8 3db93122 3d4afdf5 be26d150 3ee33d7e 3cc166f8 befc3704 3eaf45fb bc6430ed bea94b6a be3120aa 3e299037 3e2c87cf bd9452e9 3d3ef262 3e1c33a4 3d2cf6cc bd2b8b4f be12aa84 3e041a10 3ed807ea 3eebec63 bcf79080 3c7e786e 3aac6aef be1c7be2 beeaff89 be9b941c bb8e2acb bdac62e3 be97c388 bc548e7c 3ddf3f24 3e53918f bc0bdaec bb4657cc 3bd2a0f9 be2b1085 be5d20de bd960bb8 be3be0f1 bd9c2c96 3e9d8d70 bdaa8f6f 3dab96a4 3ed74f95 3ba23402 be47a67c 3dd9523f 3d853f07 be0f9cc5 bde97984 3caec013 3e06af48 3c951a23
body.stage1.2.1.weight 16 3d86bd32 3d916bb8 3e39f695 3d925526 3e2a7194 3dc5482e 3e622960 3dc9fd9d 3e097a7b 3e3f0012 3e0e5d37 3d9049b1 3e440eb0 3e076784 3dbbeae3 3dc38f93
body.stage1.2.1.bias 16 3ecbe783 3e261636 3e625369 3f541baa 3dfd99e7 3ed1944a 3d55eb10 3e48e748 3ebdbc8d 3e07264b 3efa0bfe 3ce54fba 3e996463 bb1482fc 3def56ff 3d9b8031
body.stage1.2.1.running_mean 16 bc87b530 bc17e000 3aa8a9a3 3c2f76ef bb4deb87 bb8c84ea bb144167 3b592e6a bd15776c ba2aa8d6 bc38faec 3c4e06cd 3c568e14 bc818857 3b44c699 bca8f152
body.stage1.2.1.running_var 16 394b65ad 388940d1 3884ae2a 3b02e92f 39776379 3a4b5375 3bf58b42 39a10e1f 3a110046 371b19f2 3a0aa315 398a9aea 3a305932 39d75d84 39b473fd 398c8915
body.stage1.2.1.num_batches_tracked 1 47aff500
body.stage1.2.3.weight 512 be0c0e35 3d9a2a0c bc9d87bf 3c98c71e 3ca10feb 3da5b669 b9dc423d bd722b2d bd37ec2d 3e456f6d be1259a9 bd0c21a5 be3f7791 ba018fd7 3d34f20b bd777b4c 3b8f0ba8 bc0d4d02 3d8be289 3c015d9d 3c231d9c bc7c9ddc 3b1c83e3 3c36406c bdbe7fd2 3dc06003 3cdd4b64 3e5da087 3d7a669c 3d803b89 be016eeb 3e0d220b be3639bd bd76607d bd67a337 3d8de30d 3be10240 3d449bf9 3c791b2b bd4c4434 bc803a4f 3d0e781e bd8f0959 3dee8c9d bca5afcf 3e0654d4 3cde7627 3e0f2846 bb970b97 bc611eea bd2f7394 3ca1a9a4 3bb3337b 3e92fc34 3d0082c2 3e61e300 bc0b901e bcb5ed4a bca39695 bd43b5bf 3aa6e973 3cef6d51 be61324a bd7403e3 be2cd972 bca79b8c bd3c60ea bad9fdb6 bd1e9db2 bd604597 3b17dcf9 3c6cb36a 3dae3a4a 3e14df33 3e8b417c 3d15dc24 be145366 bcbad272 bc00c903 bcdfad9c 3d15cf89 3cc24230 3c114e36 3f24c6fa 3c46560b 3d2ac661 3b3f6378 bc9d6276 bc7256b0 bd032563 bc9f88f0 3d1eb91a 3b5b060f bc946a27 3ce1d3f8 b8f3c5c0 bdeb44ea 3e1dd1db 3e31ff03 3cb8c706 3e015c29 3d2905a2 3c40d721 bd1fc761 3ccdbd62 3e5942ff 3c61037b 3cfb3e10 bdecd0e2 3dbe3dfd bb1a659d 3c342b55 bdd02aa2 3d1c67b2 bd86db25 3a84853e 3cb38920 3d8c1782 3c3b1328 bd795565 3d20706d 3dd341f5 3ce3d369 3cc8750a be62ecf5 bd0ee3fa 3d876daf be106b53 3d83992a bcfc01d6 bd348e57 bcb72127 bda68eea 3e38cd8a bd025f35 3d2dd545 3dae588f 3da67063 bd083745 3d499df5 bda149b7 bc1ce9bc be191bbc bd1d90b7 3e2d97eb bd013ef0 3d06924a bdb9fff4 3d99eb99 bc2ce3f0 3c0ee45e bcc7cd32 3dda9699 be370a3e 3d99403f 3d83139a 3e665888 3db5dbc6 bc637ed7 3e059fa9 3d9dfe95 3d9b8231 bca837cc be45e7e9 bbe0629d 3de2ed97 bc0758a7 be02abcb be93526b 3b9bbf07 3db5e9fd bd60de6d 3d7344d4 bceb36f3 bbde1942 bdcb45b2 bd5ded69 3c39e80a 3dc152e6 3cf01c0d bb14bc6c 3d35a41b bf0df3da ba84c828 3a558d75 3d199d92 3c01e21f 3b8e748e 3d348e3a 3d93dff1 bcc199c5 3d626986 bbc00d63 3d5eea92 3c86aae3 bd147993 3be0ef9e bd7cb9ec 3badbdfc 3d52ffee 3d094f2b 3d721143 3eb4d621 3d82395b bbb9defb 3cef8ca4 bc318944 bd1ac510 bd6acc94 bade2655 bb8f7787 bdf02b50 beb0188f bcb57e73 3c3cce92 bc2a6325 3d7b81f7 3d94f2c1 3c7ca013 3d58836f 3d1c21ad bd36349d bda56667 3d655ae2 bda9a37e 3d74041c 3dba184b bc671f7b 3d28e3cd 3e00bb6d 3a67c38c bccb094b 3da03d7b 3dcf8c31 3d287344 3ce7c3a7 be44b817 bbf2aed6 3d167c5b bd96fe5d bdd6ea6e bd69e1ab 3cfd8c23 bcae754d be858cc3 3d5e0c54 bc837245 bd6c65ca 3d67374a bd7fd44d 3b00c8e0 3d1cd9c2 3cec5dd3 bbce0ed7 bd222ed4 3dfe3088 bc17bbdf 3c8cc348 bcbc08e1 3d5d93c4 3c53ac64 3d9bb76e 3c8f704b bcd61153 bdda306f bd055ba2 be70100b 3c42968c 3e069a0a bc1073f3 bcbf5855 3dc98e62 bda22753 3e59eb9a 3d8cab3f bd680145 3dc8a53f bdc1dfb3 bc2d250a bc9dd1ed 3d822c07 bd2868c8 be50a67a bd73ed6e 3d72d2f5 3aa44533 3d9b5331 bd20a772 bccf58dd bd2514b8 3c52b4d8 3c1d5e85 3d6a41a4 3e330111 3982afcb bdf2a610 bbdc4ad5 ba4900a9 be4f7e95 3cfaa2ae bd7e307d bc1c576c 3d828da9 bcdb34ab 3bf669a6 3da6478c 39f7c212 be935538 bb982bf3 3cdd070b bb33b1c8 bc935483 be27963b 3c886e14 3dcd8c33 bcd1e32c 3c9eda58 3b3cf00a 3c123b96 bc966360 be061f02 bdb33441 bc9a5e0f bd1414d0 bcfdc5b2 bc81bc9e 3bff11ed bc20c3c7 3d2bc99e 3d0a61cc 3d8901c6 bd183bb7 be136189 bd86f3b3 3c991a1f bdf17929 3c54f60a bd3f60df 3b0a9690 3f0609d7 3bb96c6a 3ce61420 ba22d0f3 3cbffeb2 3e2754e0 bd15ebdd 3d035a45 bc273dd0 bb7b27a4 3cbe9930 3c5cf71c 3caafcee 3e564c3f bd1f48ff bce1d156 bc9805ea 3c91f916 be014ba6 bc064f70 3c6936ce bd0cc837 be2c5948 bbfc5841 bdad768b 3e83db1b 3e00da43 bdb948cd 3dbefb63 3bafd635 3e00641c 3d6601a5 3a66a2c2 3d82dfbe 3d53b685 bb972bc1 3ba0f784 bec4a46f 3d48b17f bd921df4 bdbe18c5 3d8f567f 3c040d97 3da83d72 3d1b347b 3d7e7bf0 bd05c006 bd07f00b 3b86ecd6 bdae2e9d be5cae6b 3bd149e6 bcedd160 bd0319ab bce680ed 3d58d592 3c6351fa 3cc4b0a2 3c9d3492 3df133d6 bc58f345 3e4efa82 3db701ca 3da41ae4 3c8a0d17 3dc26d17 bdc57cb6 bcc106e4 3e042a9b bd8ce638 3d892042 bd46c35b bd20abcf 3e0e2a66 3d82adce 3b81b5b7 3cb95a10 3d930337 3d3e3df8 bd32d06a bd85dc49 bd8db69e bd929af8 bcc26c4e 3e0fda33 3d68517c bdc11f9b 3cf48398 bd028371 3e10b10f bce7bc4e be1d25b7 3dce65cd bb0a808f 3d033e17 be3fbc94 bb46b58f 3e9671bc 3d54fdae bd7b472f 3cdc5931 3cd08b40 3d53cf1c 3ce9ec92 bbf60bd8 bcdbfd34 3aec2c3c bcc596d8 bd0aa000 3be5130c 3d49dea8 3c30acda be6177c0 bc679440 bdabb511 ba9398af 3d132444 3c822f9b 3d9f44b6 3e83f1f6 bcb25d91 3c2d2949 bc7897a4 bdb5dca7 b850aad2 3cadc315 3b6fdd00 3ec88402 3cd1d196 3cb25fa8 bcda0c3f 3e1673aa bc2e074b bce6bddc 3d180f7b bc36cf63 bd6966cb 3cf78cef 3e011181 bd27cd65 3cc79516 3c194542 bd2c3420 bed5e1c8 3c23edfa 3e31a66a bc4aecfb 3d07e90e bc90b2cd bc82fd87 3d07082f bc9b6f9c bd26d627 bc80c005 3e0fdebf bcc49ad2 3c359b8e 3e0acef7 3d845aad 3d23497e bdb037b1 3dbaf4c3 3dea4612 bbb0e8a6 bdeb6cd6 3dfee5a2 bdc58f8a 3dae532c 3d8e9f6e bd2573a7 3d8c1976 bb7fb6f4 be40e12f
body.stage1.2.4.weight 32 3d5357a0 3e0ae1ef 3dc1846d 3df3fa86 3d5bcfa7 3e30bf13 3e0d3e70 3e03dace 3d2c3657 3d897b61 3d5574b3 3e8e7964 3ded59f4 3dd3a7b8 3dba1583 3dbd5d05 3dc75217 3d6a06fa 3dd6264c 3cfd7ca6 3e03d4d1 3c9d7fa0 3d8bbfb8 3d8ce874 3dfc96fe 3dab75b0 3e0410fb 3d3d3ed6 3d539fd4 3e5b1bdf 3e262861 3dc133a3
body.stage1.2.4.bias 32 3ea75998 bd048fd0 3e0ba8de 3c6793fd 3eb8e979 3ca7967d 3d22db84 3ddb5748 3e6abbc7 3e66c40a 3e8e44de 3ce080db 3e03e19d 3dd986a8 3de37237 3e0336ff 3dccf0ce 3e09b440 3ce14081 3ea1bced bcb023da 3e8bae30 3e1fa4af 3e881dc0 bca2e7b0 3de5dd72 3debf0be 3e72c1f6 3e790427 3d14228e 3d0243ae 3e05703a
body.stage1.2.4.running_mean 32 be018eeb 3d1bbd5e bd2d6e63 3df2dace 3cfebb14 3f0e0edc 3da427fd bd70d5b7 3d2f1838 3e07cc1f be2367e4 3cc5cb27 3e222062 be0614a7 3d29921c bd717e5d bd38cb6b bdf2eda1 bd8497ed be613900 bdec178c 3f05c698 3d386ce8 bd94f26c bd6e6c60 3e055043 3c55f388 3d1782b6 bd824103 3df67875 bdb55a5d 3db6b28b
body.stage1.2.4.running_var 32 3b58d043 3a71030b 3a9cf274 3a6885ec 3b12b94e 3b17ea29 3b0ff0a3 3b3bb959 3a7b2277 3b2a8278 3b146024 3bf60a5e 3ace690a 3b181043 3b041804 3afa6ec3 3aa3477f 3af8c4ac 3ad07b0d 3a79fe61 3a51407f 3ad3dda7 3b829cd1 3b3b4258 3a23b0d6 3aac09a8 3b1b5ba5 3b43fdc9 3abf12e6 3b5b18a8 3b98b8be 3a5af277
body.stage1.2.4.num_batches_tracked 1 47aff500
body.stage1.3.0.weight 288 bd6b6880 3a9ad723 bca1d3b0 bea0c2a0 be06b954 3ef15727 bd1e5aaf 3d48955e 3d8aab31 3d2f89b2 bd4f30ab 3cc0d90a bd9603b3 bdf9127c bd2addf3 bd8a3a0c bd96fa30 3d61cf61 3bb2aa40 be0f2e7f 3cefeebf bd41894e 3ebcf3f0 bd2367cf bd98467d bcfc4016 bcfa902e 3e1d050c 3ded6114 bdbe60cb 3e2280a4 3d304b48 bbc9a1a9 bcf92ca3 bd3a86af bd5da7b4 3da79469 be4fad22 bd87a347 3e5b20b7 3e103035 bed36864 3db43d16 3d203c6f 3bd82d47 bbf32dd8 bcad065b bc7cf640 bc7a8fe2 3ecf4d0e 3e07b154 bc95c886 3cad439c b9d8681c 3d1bbd31 bd4794ac 3d8ef2f4 3d14a902 be8efa42 bbeff4ed 3da99dc8 be54ab2c 3ca887d4 bd01c495 3e187ce1 3ba88ded 37c0cd44 3e962069 3d9e4b5b bd863680 be7c8d50 bded14c0 be0882a8 bda8e18b 3c7a9e5e bd86401d be23c2e6 3e41a25b bc69c8ff 3da59112 3ddc999b bd357c31 3bcd3388 3cfb2c70 be6f5bea be955692 3f007172 bd901e5e 3dd04067 bcf0f4dc bb03ee46 3c11d104 38f5b306 bcd9a547 be951f93 3ec5bb89 bb0e49aa bc495424 3d11c5be bb871181 3bb5802e bc0b7339 be8dc89e 3efa90e8 be69027e 3d28f806 bce58554 bc9054e1 bcadc151 bb040e83 3cd12faf bea1a100 3ddf2c07 3e9a3eff bc9a89a1 bd8ea34d 3cb1c836 3e53688c be81acb9 3d1c21dd be647cdf 3e93c387 bd5cdd8f bd4cfb37 3daa09a9 bcd363dd bca5e086 be41580a bc99c6d8 3d2f8db5 bb25da5a 3cc9fbf7 3da2d085 3e8e7e90 3d712895 3cd9da7f 3e8e044c 3b897509 bd79c53c be2a1729 bd114ded bc6fdfcd baee3109 bc23fb43 3dbe23fd be43918b bb5929b4 3dd09f9b 3e1f5a16 be4d8415 3d8e3b3a 3e3acdc7 bdde701d bc9b560f 3c7e2867 3c19f345 3d6b1e6b 3d626019 3d076afe 3e4313b7 3dde2aec 3d44ad87 3d067e15 3d63cfd3 bc79799f 3db536cf 3e828b48 bdfb6697 3af486bb bd5bebba bde25ac9 bc917a9e bcc1457f 3e7f81e8 3d257fc0 3ce91cd5 bebb6548 bcc26448 bb20cf13 3e14b730 bcaa6108 bd3a9b7c bd862dcd 3ccf0fd5 bdee5d2b bd30f77f bd26615e bd5c9310 3b67f6c6 3c84a7f2 3d07b7fa 3caa58fa bd89b3db bec5e3ad bdc495a8 3c9f8c1d bce33102 3b37ff47 ba794933 3dd77156 3d58d3d6 3cf50b28 3e499186 3e19b53a bd3e3dc3 3da887f8 bca1827c bc34f155 bcf88c37 3c24df21 3c790a8b 3ebacb55 bec38f76 bc585f75 3c43e8a2 bd4b72d5 bdad0b46 bd752676 bcdbf9b0 bd92f674 bd78351c bd971f35 3cc4b7f1 3d016055 3d50bcae bdb65cc7 be5e2156 bdb26660 3c3c1ccd 3ed5be1e bccb9998 bb039a69 ba310c73 bc1e5d01 bd9760e4 bdefed87 bc0cc348 bde44d9a bda908fe bcead31a bd590732 3d23f318 bc4dd117 bcd87563 be837e64 3ca533ed bc7589f7 bddd8b0f 3c94881b bc51b9c0 3c86c0a5 3b4ce858 3cbfb4ef 398ffe46 3c67697a be34aa98 3ed050c4 be259724 bcadb0e5 3d39e376 3c200849 3c4d138d bd752711 bc5f4a4d bd35b12b bead4082 bd3d9f88 3c70c623 bd6a7ef3 3b7fdb0c 3c69dd7d 3e4bccfe 3b22d573 3bd6d90c 3e6a9e80 bd0ed822 bc8c9558 3d12b399 bc183e81 bd00178d bc59f298 3cc79020 bcca5a68 3ea7e390 be9146ac 3b2681e9 3bef208f bc3d4b5e
body.stage1.3.1.weight 32 3e81500d 3da2c44c 3e6bce72 3e2b7d11 3e86b1fd 3e394a1b 3e29903e 3e614dff 3e07a1e2 3e8a72c7 3ea557de 3ec0b511 3e4c4e01 3e8a538c 3e4a4ed0 3e785a02 3e3996f5 3de916a7 3e4a6b17 3e8b2069 3da7fad9 3e5c1011 3e553ae3 3e982268 3d98d933 3e6c61e1 3e1f5a9d 3e527ba5 3e7e322e 3e2890c2 3e1df1f3 3e806457
body.stage1.3.1.bias 32 3d6fe26f 3e8cf766 3dc135ea 3d190a19 3c8f27d2 3cf2b629 3e9bb2d8 3bfbe39b 3e8468f7 3e0c43e7 bc59f96e 3a8f50ba 3e837911 3e893605 3baa15a5 bba6f6c7 3d2653c2 3e4a712c 3c106f4c bc93de0b 3e8da156 bcbd33fd 3c35c5df 3badd5e8 3e8c9fad 3c2fd9f9 3e0fe4d6 3e0e16fa bb37e710 3e99abfa 3df35df7 3bf83b0f
body.stage1.3.1.running_mean 32 3c0bc4fd bc005869 3bd3ccbf 3c0b7914 bd264ecd 3cc4156d bc7b3881 3c192c22 bc798cae bbe99df9 3cdd20d9 bb0506c7 3bb5a1ab 3aa4f2c7 3ce67f75 3af7ce96 3c2fc2e1 3d892ad4 3bcca382 3c10dfa0 bbd67540 be076816 3db1a6e1 bcb76962 bb872d73 b81ba594 bd677683 bdaf05fc 3d0da608 bd0db226 3ccb6222 3a17025f
body.stage1.3.1.running_var 32 3a42ad87 39d0cb44 3a852f91 3a52ddde 3a9522b6 3b2e44d8 3aaef9ce 3b10c028 39248bd8 3a391ada 39fc920d 3b4ae8c8 3afa46ac 3a65ec94 3a8a5335 3a3f8d73 3a8569a1 3a109268 3a23180b 3905e99a 39623cae 38662400 3a2ae86c 3a51c928 394abca9 3abf8330 3a4dab4c 39226ed4 3a0baa47 3bcee6e5 3a90feba 3a69d271
body.stage1.3.1.num_batches_tracked 1 47aff500
body.stage1.3.3.weight 1024 bd3f90ce bd76082a 3cac0c7f 3eae6fe1 bd3f5043 3cae371b bab92747 3d696741 bdd7a76d bc827681 3d01cea3 bc4d432e bc812660 bcc403f8 3d3e8a5c bc9a3f24 bbd5ba0e bdb1742c bce11e66 bb94b5d4 bd5190dd bbaca074 3d1cb0b4 3c156c73 bcdea9ed bc4b7a28 bbc92761 3c5ad65c 3d24fd9e bc96d67c bc728c40 bd29e3d8 3d9010cc 3c9a9c91 bc2da370 bcc16b4a 3e2a545e bc29aa80 3d560384 bd8f54b8 bcd09469 bd4256a4 3d06e7ec bd32365b be82f915 bdbcf306 3da344d8 bd39b7de bdf24bb7 bd099a78 bd833291 bc04b918 bcadd984 bd441c91 3d3074c3 3ca51b2b bd74a72c bd2e6124 3c3749f0 3b0bdea3 3d8d223b bd51c101 3ca00025 bcbca727 bd450e50 3d3fc50b bcb2296e bcd15a86 bd068110 3c5c9528 3d681fca bd70bf3b bd2911c6 bd8fe8da bac95be1 bc1b061a bcf66c68 bc8cec2a bce8a9cb be533ed5 3c2cf118 3b86e22f bd51ba4e 3c275f2f 3d555e40 3caae1a6 bd170f88 bbff5a23 bd60b746 bd503d1d 3d61d74a be528fa7 3b1a1db8 bdea5292 3ec06bbf bb64653c bd869f81 bd84b9c4 3cc7b24f 3c155f7a bdc62991 bdef28e1 bdef3a59 3dee08d5 3ae7af0d bd059a7f be133b8f 3bc5a17b 3c96c2c2 3cf96b33 3dee1f33 3dcae879 bc8b9345 3d774ced bdc3d1fb bc3c7597 bd082f46 bd969c1f 3e163ca8 be021be1 3cda1460 3dcbbc92 3d22f0be 3d042403 be276e34 bdd2b256 3dd1c236 bcf63c7c 3d806895 be284619 3d916181 bc28c20b bc1a958f 3c792dcc bdfa5893 3d1682d4 3d723a0c 3cf7d6dc 3d1a83c2 3c5b97b2 bd7d6431 3d0abdb7 3dddac82 3e0c0bdb baaddbba bd51cc79 bd07f0a9 bb092759 bd9abfd8 3d3edc67 3d4b8c9d 3c9d0462 3c49b601 3db87bef bcd93571 3be99e49 3c10c620 be459d9b 3e00afe1 3cbe0ec7 3d83b5f1 3d477314 bdaab304 3cd08c7b 3db75dc0 bd79d8e3 3e07d472 3da8cf15 bd57393a bb290013 bd8ed68a bc44804a be35442c bd3e4299 bd9e76aa bcf21a8b bda2f9ed 3d1ef2df bda4ed68 3c0c924b bd86bbf5 bd25c42f 3d1b67d3 be23f91f bd3aac14 3d0d4a86 3d199a5d bd3ca3e6 bd99ef2a bce7c578 bcf92ecb bd776ae7 3df672bc 3c9219f9 be5116ad 3c9b06db be0fef72 bcaef98f 3d82e365 3d76f639 bcdafde9 be8a50f3 be02de7d 392db18c 3d120f7d be31b003 be0b282c bcf80013 3e5edaab 3c335194 be4c95e7 3d226e18 3b9ced78 bc2efea5 bdf03cf3 3d28ea72 bc2f68b2 bc4241a9 3d3cc793 bc0dd648 bd16c177 bdc77b39 bd24518d 3deb4930 3da1f685 3b29b9fd bdf8fa08 3cacb2d8 3e45255f bdb310a6 3e05a343 bc378962 be0a341b 3ca0aa34 bd99450d 3cfda22f bda2b3b3 bca40bf8 3d05b07d bcd9fa34 3deabdc9 3d84b1b1 3d263a45 3d5398da 3d722d11 bcdabc60 bbb31ade be4d35de 3d82137f bd6ad37c 3e01766e 3ddad47e be16d4e2 3dc834b2 3c1cb129 bde319d5 bd677515 3d1270cd bcd3c6b5 3dba7f66 bdf43257 be253a6b bcfd89e3 bcdef3df bdf2c42b 3d655ac2 be0d3efc bba0397c 3d0dc12e 3bf43b97 3e010c71 3c177915 3d6b8abb 3e35f0d2 bd692f63 3d17d995 bc5d1745 be040013 3db9d1a4 be1156df 3c8ee606 bd786d4a 3c4268e8 3d0ffae1 bde6da2b bbc0c07a 3c353f0f bd67147b bd849644 3caa257a bdf06c63 bce7399a be05c9c8 bde3fc6a 3d3e0465 3d9e3cf4 be0f4c1c 3d863362 bda2222d bc77aba0 3d05f81c babff13c be710c8a bdbb4977 3e3f920c 3ceb2c22 3d3fa3b9 bbbf5068 3c19722f bbf8c651 3d499eb2 bd1e94f5 3c6cb4ad bc90569d 3d986ff1 bcff8ee7 bda67376 bc65134d bd833ad9 bcbbba79 bcbc963c 3e848ed3 bc24ace7 3d884244 bae3a946 bc805887 3e598174 be419046 3bdafc77 bb7ff2d2 3c9b2838 bb9490f6 bc45015e 3c949335 be04dc7e 3d87dd76 3c919690 3e8d1b63 bdb4a255 3c7a4a69 3d30dea3 bcd38725 be17d7ae 3cf9e9a7 be082d32 be054ba0 bd0a587c 3d9f550a 3d9b03d9 3cbef00a 3cc3f117 3bb23eb6 3da15f7a be2a36a7 3d3a1759 bd9d845f bc49f1ca 3de3d425 bd8d8484 3d7b867b 3c29c10b 3d58d99f 3e1b05a3 3bc2aace 3e1dccd5 3c8cfe0c 39f042c4 bce6e581 3d81fd5c 3d8b81c2 3ddc7000 3bd7033c 3d25bacd 3d70c92f be4de42b 3e04ec11 3e1c310b 3dbe1c18 bdde20ca be010b33 3e120d2f 3d9e7fb0 bddd1aca 3d90d49e bb28c9ee be184664 bc5176c1 bd010443 3da97170 3e4136c0 3d4b1774 bdfe9eb6 bd6cddce bd6e2524 3e363b1a 3b24c75a be3f4f72 bd6e958f bcef036d bd9a9f79 bc6631fa 3d431c53 3d436ee1 3b0008e7 3e3c151c 3e0f81ab be7fa452 3e1239fe 3c71765f bdbf5d79 bdc8e551 bcbf1ca4 3df934e7 3d0abc37 bc64e9a1 3b5d4369 bdb5ef84 3c1e46ff bde3fd7e 3a276868 bddd5dad bd8aeb5d bb41872e 3e5eb17f 3aada859 3ccb562d 3af86376 3ca786e4 be1169ce 3bc807d4 bda0f180 3d147bf7 3d223a8c bcd7b8b9 bda2a6b7 3cc860eb 3d6db8c3 bd017271 bd8f52f6 be286220 3d4dcabd 3e0db8e4 bd15d1f0 bd3d60a6 bd66d7b1 bdb4dd18 b98b0e1b 3c767120 be7e37fc bd187caa 3d262259 bd0f184e 3e207126 bd345d86 bd690e39 bdaac3b5 bda93ab0 3df1bd4a bc6df628 3bd9e163 be26f8e0 3e5eb276 bc928065 bd77e36a 3baa0ba5 bc7844f1 be0d2e20 3d924d87 3c34b6bd 3ab514ea bd860770 be4e15f2 3be20bce be9b4066 bb404094 3ccf6332 bdb64f7c bc018c56 3d67aa60 3e87cb0b 3d6d308c 3d4410c3 3ea072d7 bc479bdd 3bf79639 bd995cf0 bdcaab13 3e3561a5 bdb396fe 3cb0e3c1 3cbc8697 bd6fa176 bd5fb4c3 bc8fee06 3e0a247b 3e9975b8 3a12dbaa bce2b697 bbc9aa14 bd2a9ee3 3c6e991b bd92aab6 bcbcd059 3d779319 bb9ec97c 3ccf045d 3c40fec1 3daf0ecb 3d9c22b2 bd23201c 3dc05037 bcb51435 be06064d bd77f0c5 be1a8095 3ceff78c bdb8837c 3d43ff64 be1b9331 bd296dc6 bc6b7ef7 bd51fa4d bcf8fbb8 3cf7dbaf 3bee95ad 3d0cc10f 3b7e3e34 3e11a503 bd262a97 bc09adb2 bd8e516d 3cae683c 3c3c5557 3d569d8b bdc263a2 bd4b8775 bd7f14f1 3d3f3bd9 3d06ea47 3e8415a1 bdbfdc5d be8eaa40 bd34ddb9 3b8bd7cf 3c9c54b3 bca6f122 3d261583 bd18dbe5 bc4bfa4b bd3687fa 3c39b665 bb0f608a bd211aff 3d8348c3 bd47553e ba0a41ed bcb8b8fa bdfcffff bd4b6a18 3cacf862 3cba2256 bd4f45b6 bd06f5dc 3ef13713 3c5c2f16 be20ac54 3c6a76e7 3c5ef847 bd31d753 bd4269f7 3c1b2f67 bd9c778a ba275194 3d948c27 bdb60fe4 3d3c3363 3d066c5d 3d837df2 be7d3b20 3cc51a68 bd257e71 bd8106f2 3db22138 3af09e30 3bda5e73 3e82f4b2 be21ff72 bb3b9976 bd686023 3eb8d565 bc8c2fc9 3bc4a566 be1333d4 3a844dcf 3caa622c 3d95888e 3e2a497e bcf614b3 bd640a8c 3d48bcf3 bd08e3fd 3cf1510f 3d751c58 bc6e0c7b 3a1e143d bdc28bd0 bd6f3427 bca5a972 bd17d0ed bd89b274 3c0bf5fe 3cead67e bc8e786b bdef16b5 bdb61f38 3ddd37f7 3d1c09e1 bc4aeaef bdcf7cd1 3b2826aa 3d4014a0 3c4da517 3c4aa76a 3d24aa8d 3ce8c6f7 3d852980 bd83b32d bc218b7e 3d1e6393 bd18b272 3e129838 bd734ead bc6fbe5d 3dbc42e7 3c6d8ba7 3caa0e2a bde48e04 bd73ba99 3d6c5559 bcc441e7 bd53e44a 3ca533cb bc5482aa be076f67 3cdd7172 bd0a0120 bce35be4 bd009cc7 3bb6bace bd637458 3cdbefe3 3f208e2b 3c0af360 3be1c9e0 bc9a93d3 3d575031 3cee69ea bd6413c1 3d40c66c 3d1276dd 3b662197 bc943082 bc83a472 bda55e03 bcf7dc35 bd043eec bd34811d bd12b308 3d837a06 3db2e5b3 bd10403a be390abf bd3bfc38 3aced1bf bcf21f51 3c80501a 3b83ed5a bd5147d1 bdefc232 3cb5cc19 3e5a7e49 bd2078b6 3c3ddf94 3abc6d50 bd236c30 3c526022 3d7c1f0c bd0137c3 3c24953a bd0e1594 3ddeb474 3cf1a856 bd1bf535 bb42cff5 3d47cec6 3d37d943 be7458ea bd8163fe 3e53b2ed 3d9a6455 3d1aab12 3debd03b bbf6be33 3cb68ac8 3e9b11a3 bd327b5d 3bf41424 bc4e8b50 be24fa73 bcae6193 bcdbeeba bda4d77c bd24fb58 beb2c4bd bd7e0170 3cb6401d be1d5f67 3d5870b0 bd33723f bd8b3823 bc8d71c4 bbbe3922 ba6ab1e5 3d49660d 3c935924 3bca8d59 bd0c6ecb bdf624ee 3c22e834 be68ee4c bcb05aca 3ccf441f bdeb5cd9 bd0a441f 3d403e7c bc0011a6 3c83c0af 3d52bbf0 bdc01453 ba905c34 bcd79933 bd8904ed 3c673300 3d72f738 3d05f528 3d3821cd bca687dd bc2ff8cb 3c41037b 3c037ff5 bda54d30 bd35a4d6 3d9dab57 bc5037c8 3d353389 3cb7cb44 3d843396 bcce22f7 bd43bf68 bd03341c 3d101163 3d4980d3 3c8a6a51 bdbd96ae bd036a2c 3a2327be bdf2d42e 3c328155 3d22e54d bdbbe184 bd065717 3d2347a4 3e4b616a bcbdae1b 3d54411e bdc2ea4b 3e04883a 3d684078 bcb7b006 3c531640 3dbec604 bd1c0b35 3c27545b bc63d426 bd6aa67e bec5dfa8 bd9b9926 bd98d94e 3d3d5ca9 bc445802 bca9dd89 3d16a0a9 bdcf232c bd9d3521 be70899c 3c361882 3cea6cad 3c2a7076 bc15fe9c bca5ec3f 3bd85cd2 bb2ecaa8 bcba4663 3d120175 bd95f695 bcb5e21d bd16b676 bd7a6fa3 bd7bed33 3d3babfa bdaea9f8 bccac4bb 3dfcea45 bb2078d1 bc4ac56c bd928950 3df1bbe4 bb92c746 3dcfa740 bd734538 bda99c8f 3d0eb548 3dab21b4 3d5e3486 3de04b2a bbeffc40 3cd8a2bf 3cf4cff3 3dbe0fe3 bd0496aa 3d153d15 bd168a15 3cd75ce3 3be700a4 bbfd4bca ba1fb0c4 bd55b205 bcf40f54 3c2315eb 3cc0266a bd5a92b8 bd1a1862 3d376d51 bb6b67d3 3e50d680 3dc0aca6 bb83c351 39ce8a73 bd439e55 bd0828b8 bd5c1686 bd3bb590 bd0a495e 3e254bb9 bc88cff2 be93558f 3d292496 3c931189 bbaf7458 3c551806 bb821a62 bd1be2c7 3d2458ca ba6e6893 bdaed3e7 3ccadcdb 3caa09cc 3c6e6fc3 bda2781d bdc43757 bdce0cc5 3cb63fc5 3d1d21d4 bbad59b4 be0bc00f bbf4a7c6 bad40bee bc810858 bd77215f bc057b0c bd5c1ea9 bc6f8012 be24a4a4 3cdd85db bdf0172b bd9df50d 3db1dfd9 3dd84d39 bc3b253b 3d63f0a9 bda23c6c bdc2ff92 3df0d63c bd928e9d bb9d09fd 3c881fde bdb7f718 3db3ba72 bdba5644 bad5ad41 be0b1fca 39fbd9f9 3d80e4c3 be07fa27 3d058bb5 3df4817a bd88ab99 3b812548 3e63ad34 bd075b45 bdbb33a1 be3dc73d 3de4648f 3e03f1ca bc737bb8 3d46c0d6 3d98bca3 bba09a8c be19c52d 3c8edbf9 bd6896af be8bd2d4 3da5bd21 3cc1f4ae 3d431b56 3e1ec2aa bdfcd10d bc6391e9 bdbf16c1 3d5387ce 3bde877f 3d04f2f6 bdec6f09 be4f402c bcfd341b 3df43c38 3d5e5d14 bb7e7104 be5291b7 bb915462 bdd7f9c0 bca8dea2 3dbd17ff 3c216160 3c064d99 3d9ba3c8 bccac5ba 3af0e804 3d3f0d45 be0e16a6 3d24cfb5 be12f235 3d2135ca 3b8e01e2 3d442acb 3bf44dac be08c32b bd1912d2 3aeeb67b bd826c9c 3d994935 bdfb93dc bc9e550b bb363dc2 3d6b6985 3df740c8 be0a6512 bbcce6b9 3d516674 3df645b0 bbb0d39f 3c8a8fd5 3d18467e 3cd8052b 3e27f15d 3d0f4996 3d29377a 3e72b937 be13ec8d 3dbc8530 3c99f6bf 3d902f25 3e8157d3 3c43f397 3c05b3c4 3d90c3c7 be20ce7e bcc7bdec bd2cf99e bd81a0c5 3d50ee83 3d8a1caa bd4a83a9 bd950f76 3d4a0cb0 3d08a093 bdfe8afd bed2a610 3c2b2750 3d810413 3d01d4fa baf42439 bebe2bf8 3d18323d 3de25b54 3d9bdce3 3dad5bf5 3d57b522 3c10e435 3def5db2 bd704ca6 3cac5877 bb9cf9d7 bea1c370 3dd3c3cd be98106f 3b8865d4 bb5451b7 3b0337e8 3b9e8c43 beb3c752 bd8f18b0 3d9548ec be0ef2ba
body.stage1.3.4.weight 32 3de441da 3e14632e 3e2aea91 3dff4fab 3d91c8d4 3dd9dc3c 3e6d732a 3e17e48e 3dd03fc7 3e259378 3dd3c364 3e1e83b9 3e48705a 3e31e0df 3e84035a 3e3e946e 3e30b9c6 3e2c55fe 3e749323 3da851cb 3e92fe8e 3db91ec0 3e855ac2 3db4cb38 3d63a89e 3e257be3 3e14a2d7 3e16610d 3e7abd92 3da593e2 3d9531e5 3e741f5f
body.stage1.3.4.bias 32 3ca88624 3dd9e9fb bc26ab59 3e18fc61 3da8887c 3d90f4aa bd57c80c 3d12d459 3e1a5be8 3d8afd08 3e262235 3d807a44 3d0c0678 bcf9515a bd1de161 3da4ea72 3cc19097 3d04ec12 bcbdc108 3e0549eb 3dd34cc0 3d290002 bd98f607 3c67c990 3e88727e 3c9bb70f bcde0197 bcdcdec0 bda890e9 3e6d1673 3d970bee 3de5a061
body.stage1.3.4.running_mean 32 bdb2b994 be041f58 bd62086b bd7cb39e bdcdadff bdb2b305 be00e30c 3da20b62 bc13a242 bd1b1515 3e259f17 3da8c209 bd56b7f4 bd99ed7c bd45425b 3ce9607b be2a95cf bd39f897 3e0f5673 bc5ffca3 3d095d0e 3c162ea5 be0cd292 3cbf9e0e bda8267c 3ca51150 3d05d8ed be01e386 3e08f3bd bcda8bcc 3d1722a6 bcf735fa
body.stage1.3.4.running_var 32 3b64059f 3c099473 3bc63d38 3beee6b4 3beb66d2 3bc8f52e 3c8c337b 3baf771f 3bd00914 3c224195 3ba78fa5 3c211a2b 3c0864bf 3bb5db7e 3c835ae7 3c605c77 3bcfd383 3bcdd959 3c7614d6 3b7a606d 3cb676ed 3b2110c7 3c916f8d 3b2c2c53 3c061b16 3b810e21 3bc3e0a5 3b8cd2c2 3c70de66 3c1be77a 3c2666a5 3cf49d25
body.stage1.3.4.num_batches_tracked 1 47aff500
body.stage1.4.0.weight 288 3d849fb3 3da6cfc0 3cd6ef78 3d15ed9d 3dcf940a 3d94ce84 bb832f09 3d402416 3d9db88d bd40f3d1 bcdcc843 bd3798ca bda8f414 bddb32ed bdd6222d bd93ed87 bd9aca19 bd9061e8 3d2d0b09 3d552482 3ced2d44 3da847ef 3e1b8793 3db12e61 3d77cc75 3de90148 3d9ed6c4 3d988a5e 3c132644 bddef98b 3e1661f4 3ccf7761 be69db6b 3ddde1ef 3c8ea6b6 be17d89b be0679f8 3d421a40 3e14b38c be262de4 3c8a6460 3e3fda88 bdfad4dd bd21a38f 3d11f4ad bc8a6c60 bd630fb0 bdd205ad 3c2adbd6 bdd0b2e0 be200873 3cc2d01b 3bc5d3ec bd816f6e 3d55b986 3dcf9734 3d732386 3d85d32b 3e21a45b 3de7de77 3c8daa42 3db991d8 3db1a398 bd3233d7 bde26107 bd85996b bd568409 bdd835e1 bd83ee9e bce9dceb bd7140ba bd0236f3 3cbba955 bbc2fe52 3b8002cc bc69244f bdff854b bdbf3acf bc31c41b bdf903a0 bdee9336 bd237961 bd6ffef3 bd8a4520 bda05c33 bde10dc0 bda735ff bd9aa4b3 bdc41029 bd908caa bd836bbd bdc6300c bd36ed68 bda6ecf0 be0ac305 bd9537e2 bd05af13 bd7914c0 bd59943d 3ddadf13 3e53a1a4 3df3baff 3d570df3 3e1fae62 3ddc15c3 bc4eaf42 bbf90b2a bba97a03 3d950851 3df3c93f 3d6e6aaa 3e1220f9 3e6379fb 3dd6d500 3d998402 3df24475 3d62260f ba5cbf5d 3b28cec8 3c957237 3d98e0e9 3e09f7f9 3dd52713 3d91bb7e 3df1fcdf 3daa5d30 3d8bed0a 3de36126 3d69c1d1 3deb7e3b 3e49b00f 3de3d67a 3d5f5558 3de6ea25 3d997745 3d6122d5 3da14b81 3d39bcb1 3dd564bd 3e4f74d0 3e05118a 3d969383 3e0b52ba 3dc2774b 3d196def 3da53a4a 3d488e17 3db5a9d1 3e298643 3dcc48a9 3d838e53 3dcdeae1 3d5a1416 bd2eef24 bda5b19a bd656729 bd88478e be2ceefc bdaffaba bd1b9b7d bdaff21d bd29be90 3d3c7356 3dda81c8 3d913942 3dc8fba9 3e3b4904 3ddedcf8 3d8127bb 3dcf6516 3d614885 3d653271 bdb38804 3d4178a2 3dcbf05c be20167c 3dc073b9 3d83afc9 bdcd5983 3d8ed1f3 bd882c19 be003dca bd48ce80 be32630a be6d4696 bd4e8357 bd3807b4 bda464e9 bcfcc884 b9fc7a22 3ceda85c 3d11d8a7 3d953e09 3dec2375 3d7e1739 3d754709 3dbaa0da 3d045b25 3d7e28c0 3dd25507 3d88838f 3dba323a 3e27b6fd 3dea1d50 3d2825d1 3db4c90b 3d9a4593 3d256519 3dd42639 3da4d63c 3be06ff1 3bb42617 3b9d6019 bd5fbee4 bde3aac5 bdb1a8e3 bd7d31fb bd813e76 bcae5f60 be10c853 be0d614e bd53e9f3 bdaeb70b bdcb8e27 bd85795c bc97122a bcc55b49 bc0deb8b bd94347e be124950 bd87a375 bd0804ea bd999e0f bd0d3321 bcfcceed bdb56dff bd7bd2d9 bd2f1029 be04f66d bdc10b64 bcd9a319 bd8e213a bd223af8 bd7fe713 bd991e5f 3861f0b8 bd9105f8 be1b1c35 bd1c5c03 bd05d4c1 bd8aa3f0 bca9903f 3d6363a7 3ddf432a 3db9fc70 3dc33d1a 3e353746 3dd1fd80 3d374b16 3d99ae26 3d030c53 3e0e3813 3e3e1853 3e0441c1 bb27f44b bc0c9366 3c5437c5 bdcad8cc be2ff021 bdc6e002 3cf8ef8a 3d997439 3d4e0e96 3da8749b 3e2811ac 3dc9824b 3d7582f2 3dc25e6a 3d7262ea 3dd9343a 3e115903 3d76d76c 3e1c8066 3e5f7805 3dc22cf0 3d6ea2f3 3d750a63 3b97b501
body.stage1.4.1.weight 32 3e3c71cf 3e4c934d 3e27d7fb 3e4088dc 3e21e36e 3e134b41 3e1929e1 3dee5cec 3e2addec 3e32c040 3e318d98 3e322957 3e234ed1 3e238f8f 3e306ccc 3e563c06 3e2f82fc 3e17aaf5 3e229756 3deac182 3f102f1e 3e0999f6 3e29028a 3e2278d7 3e42a9f3 3ebd63d5 3d8491ea 3e4623aa 3e22b991 3e546a45 3e4902bb 3e571b54
body.stage1.4.1.bias 32 3d9b306c 3d7231d5 3e12010a 3c675ce8 3cfc74b8 3e3a6c7e 3e519ddb 3eaa78a3 3dfd794c 3e3102a7 3e610175 3e048b90 3e318c94 3da02faf 3e66bdb6 3e485375 3e4bfad7 3eaa909e 3e4edb42 3e0311f7 be40dbf3 3df1ca71 3e136718 3a9346a8 3ed41947 bc97e3a4 3ed7707c 3e1d2b2f 3e1a097e bcfd266a 3e4e3224 3f0c76a3
body.stage1.4.1.running_mean 32 3c87d4e9 bd9c9a4a 3ce23b75 bc84fe2a babbdd6a bd2292c8 3cc4e098 bd1bcacf bd96176b bd8a3f12 bdddeddc 3d554f28 3d82c566 3c80929a 3d2def3d 3da8f3c3 3d34d201 bd272455 3d3871dc 3c3e060a bdec1c41 3ccce4e9 3cb7e37a b9c94589 be4489d5 bcc4f675 bc34de28 bc25fc88 3c9cf01e 3c9e397b 3d57781f 3e0bc188
body.stage1.4.1.running_var 32 3aa2b165 3a9a49c1 3af25e95 3a359448 399beca9 39d86303 3a9bbb6f 3a07c2f5 3a12d40c 3a98529b 3adf7a8a 3bd9ca41 3c0a3c49 3a93fcdd 3b6f965d 3c466f68 3b4fea09 3ab2d53f 3b3ec639 38d53238 3c1141eb 3a439f09 3ac4d6f4 38da9c55 3a77e0ea 3adbf634 39e8d28f 3a01c645 3b0d5f52 39fb9556 3afdfe21 3b9f4fe7
body.stage1.4.1.num_batches_tracked 1 47aff500
body.stage1.4.3.weight 2048 bc31e459 bd0a758f 3d11ef3b 3d1f1da0 bcae43a4 3c3f03c3 bd6acfb2 bcfa8903 bc2b8e6b bd5e3132 bd51b831 3dd26012 3c8cb62f 3d2bbe30 3c3e93d5 bd55da34 3d02b376 ba90dab5 bd5935b9 baf92d57 3b9c03c2 3dbd5382 3b8ee4cc 3c235dcf bd999328 bd2490f3 bbec1ddd bdac6fd2 3d1d67af be3256a2 3d7957dd bd06180e be8415f4 3d2e432c 3d162e39 3d2b916e 3d7f6731 3d83bbbf 3cb36ba6 3e167668 3d87e80d bddb17ed 3e40469d 3cdc7e40 39afc9e8 3da3fe27 bd3329a5 3d363220 3cacaab5 bdf658f0 3cb9348b bc877286 3d9d3820 be38f745 bd7ae856 3db4f201 3d8bb1e9 3d93199f bd48176a bcc8b1ff 3c41892b 3d929de6 bbdd691e bc806b59 bcda296f bb82ab04 bd7cf725 3c06d763 3b67c5d2 3c3c6075 bcb4f722 3cfe98b9 3dbcb7b4 bb4d9051 be06e7a9 bdb13e95 3e0b1c1c bd8d8021 3c9f892b bdd8065f bd81bbeb bcd6ff4b bd118d6c 3d12800d bc0644cf bae29ed1 3d12bf3b bb13f49e 3d4da243 bd21350a bd93a773 3c35618a 3d9003a0 bdc7d972 3d085f06 be89f850 bbcca121 bd1bf9e0 3c109834 3e235c27 3d59a916 bbe9cb43 bdd28e14 3d39f86d 3d0b25c7 3d97cf6b be1bcbe5 bca7ebf0 3e6681eb bd54dd4b bd2585e3 bd58c0af 3ced231e 3e19c2be bdd8d91b 3d0357ca 3d4c651b 3b3c93d1 bd58e67e 3d147aac bd873522 3bb5f6ee bc16c1e5 3cdb4053 3d1ce26f 3d9f22da be2d1a90 3dbd64cd 3c9a93b3 3d0874ff 3bf8378e 3e1ccbd4 bd0cf0c3 bbc11283 bb8b7a92 bc3e4bca bc52f36c 3d37c50d bca54f4f bc29d4d5 bd5461d8 bcf2ae08 bcfb2d34 bcc62b4a bc9853dd bd33962f bc30f400 be3b3813 3c0d8e27 3c06884c bc42f1c9 3c8d17a3 bd36303a 3c1aa333 bd55e4a0 3c4310a8 3d8ef483 3c6406f2 ba943b98 3ca1d50c 3ccf4f6d 3d44c654 bd302dac 3e139f9c be060350 3c634fed bce59c25 bd3c3d03 3d931875 bc1b5fa0 3d49e08c 3da02263 bd509294 bdbf0fe9 3cb65a7d 3c30a1d8 bcf6127a 3d23a66a bd093acb 3ad3bb10 bcba077b 3bb9ced5 3cf2c736 bceaa611 bdf7a648 bd4198fd 3c1cadf6 bd92650f 3cdcf040 bd89821b bcfec8bb bd332484 3d0e3e70 bdda2cb8 bdc9365f 3cf2c2c2 3dac667a 3d9e6697 bd3a17bc 3c5628e2 3d866893 3d8ec7b5 bca99f93 be21609d 3e508a7c 3cfbf413 bdc2a37b bdbab376 be0cacdd bd4121c4 bdb8afbf 3c9fced2 3c725f16 3d0a6425 bd897569 bda41ff5 bcaefb29 bcd390cd be237081 3c9ef0b7 3e35bf28 3dd33661 3dbc79a8 be63e73b 3d2a1d0c 3dfe19c6 3d7fc87e bcfc31b2 3cf79ff3 bccf65d9 3d1f9136 bd0b2ef8 3d33c971 bdbe40d5 bc8543f9 3dd95887 3d176694 3d0a1d44 3cfa07af 3d1a73ea 3d846763 bd9099ce 3c2ee269 3cd5a6b0 bcd90445 3d670377 3dbdecd4 baa87ed2 3e78c013 bdd42023 3d3b91d4 3ce5b749 3d82d234 3ddd0584 3d969e31 bdf0d6f5 bcd9d8e4 bc95cdf9 3c9baa3e 3d78f92b 3bd681d9 3b8a8be6 bd883adc bda91923 bcd0b031 3d21b142 3d65dfa5 be1d8679 bc3c0f5e bbd1255c 3d386826 bdaa6612 3d0468f3 bd521452 3c13fee2 bc0c093f bcfaf905 bc884676 bbdd3a81 3cc7fd3e bc88ac2a 3a5d70ec bda93a64 3e198dc8 bd20a021 bdb3e44b 3ddac1b9 bdbc45a2 3d1204b8 bb83ca82 3ce896b5 3bd198ef 3cf2098b 3cb82410 3c703fb8 bd52af38 3e14bca5 3df3e6e6 3e1d99d4 3cd751d0 3d51f533 3c9a8476 bc0513e2 bc045608 3d25a708 bcb776c3 bc9c22fe bb4c6443 3c8bae2c bc72789c 3d63337f bc4451eb be44849b 3b18712a bd6ce70a 3da94192 bdc8fe5b 3c4db112 3e13dfbc be1c1c81 bb1a9224 3d186db5 3d345077 bd83c037 bd9bfa5d bd2ca0a0 bd1a8fa1 bc30722f bc3260c2 3cb4750c 3d82991b bcf59dbd be170827 3d1d76ca bc3dc0cb 3cadb6f9 3dba4533 3c2e38b7 bcaefb42 3cee461a 3cdf3181 3d4c3619 3c5a93dc 3b91f2b8 3db7f3e2 3d30ad4e bac378ce 3d0f900f bd88dad7 bd63228d 3e111f35 3e4ca93a bb5261db bc4d4859 3d0fe811 bd4a0837 3c9129f5 bdb9769b ba388bb2 3b252464 bd7130bf bd215610 3d6299c4 3db3502f be8f5d9f bc736784 bcdf829e 3d9e9354 3dc543f1 3c6dc248 3bf05482 bce9f096 3cc7f4f3 3d2d2a04 bc8ba316 3daf05c8 bb9d1d06 3cff6a7c 3de56280 3d13e52b be1f95da bda5d572 bb97a145 3e53ff45 bcf8d723 bcb0a167 bde955a8 3d19358b bd174e80 3c61459b bd6ceabd 3d45f85d 3d2fa043 3c88e3ea be0e7e2b bce50d71 3e05fff9 be07c5f1 bd87361d be035e73 be109fba 3cb7f663 bd33931c bd0a3a82 bbc2692e 3d0034bb bd346ada 3c26a4fa bc8c98e5 bd5fed27 bd140550 bd486cd5 3d08c75a bcc35d71 bdfdcb6f bd91e9af bc2840d7 3c7e0721 3e46afc6 bac48822 3b32b20a 3d9c0a64 bd08d487 3cadd177 bcd926cc b9d6bdcf bbbf1c47 3d004317 bc2bc55e bd8093ec 3d7d1d6c 3cfc57d6 be1676a7 3d0f0e8a babf1a7a bb926918 bbbdbaa8 ba3cbdad 3cff43bb bc93df8b 3d1a3256 bd2f23bc bcac3c1c bbce87d8 bc8060fe bc634541 3bac07c1 3d35d303 3c5803e5 bc093e50 3ca9d1db 3d2436ad 3d9e7121 3d58ba72 3c7d1e95 bdd2afb9 3e10f602 bda392c6 3c219cad 3e3747ef 3d255583 3a13d58c 3d4914f1 3dc8e921 3c80513d bc979d82 3c9f81d3 3b6809ed bcb1fcdc 3cc9d4b0 3d58f842 bc2e8c1b bd0971b8 3b7cbb5f bcfcc96f bce103ec 3d614852 3cbb20f9 3e1d2934 3c8486c8 3ceb7587 3cce74cf 3d729cdd bc3e0431 bc523026 bd1d63a0 3d765f74 3d44b1b6 3dc1ea7d 3dd19d94 bdf3942f 3dcedc5c bd5893fd bc3b9143 3c307722 bda39ba3 3d4615e1 bd9842e5 3d7cbe13 bccb2443 3d08c163 3e40b089 bdc4ce36 bd28f7c2 3d150253 3e152ef4 bd854d32 3c392f09 3d71326d 3db9a1d2 3cc63f22 3d8be38f bc0ffa13 bd3698bd bd750352 bd2a6019 3d3b51e0 3b250673 bb107f17 bd75327f bd392fe4 3ddfae65 3d5a68d8 bdac226c 3da9591e bdb873f8 3b95aebd bd566efd bdb74fb3 3d1f8213 bc4c5f4d 3d57bdfb bc1eafb2 3c0bd2af 3d7bb687 bca67099 be9c170a 3d6b420c 3caec498 3d64e51a bc30125f bd1e9177 bda20e32 be1044d1 3c385228 bc75a433 bc5a68fc 3cf10ac1 bc959730 bc3d64d4 3ddf3112 bdad7efa 3c12f415 bc73b8d2 3c9f7c16 3ce2de72 bcd47354 bc10c1f8 3e387cb2 3d34b96d bc0aacd3 3c27b776 bd823fee 3bf78e25 bc9f9b96 bd72b5c7 be293eab 39ec9c0b 3bef1966 bb418dac bc9cc192 bc817e96 bb035f8a bc12898c 3c5173cf bce92ea1 3cbab71e 3d45281d 3cb19504 bb0ad0c0 bcea50be 3da6d46d 3dd8da43 3cf0b694 3cbb7d1a bde93b8b 3d7fefdc 3d86159b 3d66f521 bc90ed1f bd93e6e8 3d670152 3bf464b6 bcd36cc0 3a1aa4c1 bd328bd5 bc04bde0 bdeff68c bd6635da ba4a2d73 3e5aee1e be1fc285 bd70182f 3dce34b2 3cf76214 3d444a5b be6c4b79 bde5750e 3c09df7c bdc7764f 3d507767 3d718428 3e272bb3 bd8f5ad0 3de9360b bd5c08ee 3d749949 3c96effa bde085db bd3a719f 3d58a8be bd15bfab bcf21bf8 3e4df5e8 3d409cf2 3e1801a1 3d99270d 3d555f10 bdc8e33c bd375270 3d9fe9de bc33128a be118aa3 bda4ffd6 3da22003 bdad12fc 3e0ead54 bd34cc53 3c91465a be5214f4 bda2adaf 3b50d175 bca12c74 bcb974ae 3d94399a 3d0cef31 be03142b bd033245 3d403636 3a155890 bd2792e5 3caae115 3cbb575e bd774911 be06a12c be13bf8d bceea50e bd6cfb1e 3da3a0d9 3c921d22 3d19fb22 3cd94ac6 3d15e47f bd3cd6d5 3b9a0e60 3be0044e bc8ba981 3ce461e2 bc434901 bcc212a3 bde250af 3d14331a 3bc37823 3cfa2202 3ba0ee82 bb1f00de bdf5b77c 3ca237be bc3099bb 3c98a1e1 3df42d70 3c843f1f bcdb140e bec465b8 3d59cbb9 bd0449e9 3c90ba58 3b5e0665 3ca3519f 3c17c623 3bc83d36 3c148f1b 3a5a6d22 bcdc8d32 3c4153a8 bcf15d5d 3c94de4d bd438361 3c960d8e 3d642b94 be297362 3dc31273 3d7be456 3b053e12 bccc15af bc8e992e bc1f66ef 3cae2b02 3df4c3c9 3da109dd 3cbd35f4 bd12d31c 3cc310b4 3cb9668f 3ce0b48f 3e8f9125 3e6e4c76 3c40092e 3c70f662 3d88c8b9 3c567ecd bc3b42a5 3d95b614 3bf23403 bcc2bf51 3d5a6dc9 3c9a3e37 bd364f54 bcf25120 bda1cba6 be08804f bcf8ae8f 3e11f71d 3d82fd03 3dce5517 bdb4ad82 3cf49fef 3d8f2fd5 3d438e79 3c184a31 3c58eaab 3df343f8 3d28e698 3e1ec274 3d911fa8 bd15989d bc09dbd2 3e107926 bbbd1f4c bd37546b ba846041 3c2c343c 3da500b1 3b854c8c 3c9e167c 3d8fe824 3cd60ce1 3c0162d6 bdd15294 3c7383b0 3cc59f0d bcd74788 bd16ec37 bddf23a8 bce30d73 3cc40fdf bcce70e4 3d00eb47 bccdfb75 3dd17a00 bd73c6d1 bd04cb3c 3ced7b09 3d6c28c2 bcfec14e 3e3c8ea5 bb30af4e bdcac45d bdeb9ba7 3cf3e22f bd31573e bd71c9ee 3dc58ba0 be020445 3bf5bd59 bc7e743d 3cf24cba bd0ffde1 bce4e9a6 bdc8016d 3c6ca974 bd367150 bda31acd 3d0ca086 bd4d0bec be0cdc8e 3d6108ac 3d84cb91 3d8d73b2 3c9f67a4 bcb0a954 3cc6681b be0f528d 3dd18c48 bd3a6c6f bd49af20 be00d7f3 bd2b1ef6 3d0e71aa bbd648c8 bd2cf6a5 bceaa90a 3d582cae bd8a6328 3c9d2b41 bce8a264 bdab9667 3c6a710b 3d9fa900 3c84da99 3d3fb126 3c7299f9 3e67046b 3ce514ce 3cdc1191 be0faeca 3c1ec713 bbb95854 3c8b52d9 3cc10c3d 3d1f35d9 bd676b75 bd1ec2ad be046b52 3b814da5 bb86db46 bd612636 bd9ae1e0 3d41d0b6 bd2be054 3cfb4af4 3d6500c9 bdd77061 3e02dd1a bdd3848a bc218650 bcb49b0e 3cfd9b35 bc5a26f8 3dc2b96b bc649696 bccb7f09 3dbd289f bd444534 3ba198dc bdb3e4a5 3db71c87 bc59208c bdb06a18 3db4d592 bd1a6926 bc56ddc4 bc3de58f be5f20e7 bd4b05b4 bc858e90 3e8a5a06 bde1e081 3c7e4c50 bde88cf2 bdce9e90 3d86e5db 3c9c3d63 3ca6eebb 3d6e4534 bd02676d bc68a727 3d699bcf bc0a4b85 3dfb2355 3e883502 bbf9e7ed bd026726 3b0ba35f 3d074ed1 bd1ba8de bba58171 3b05eab0 bd275e67 3d90b2f8 bd278687 3d7fda21 bd770aff bd0d3cdf 3b3ad2c9 3d1f6989 bd3bd537 3d3448ad bdcb14f0 bccb8873 ba21a92b bdcb33ba 3d4525ee bd8797e2 bd410d4b bdf5b788 3d906fd6 3d97b215 3e1ca535 3cd2aba8 3d2fe7bf 3dd0a23f bde24248 3d06ab5c bab3d509 bc77dbb7 3c306927 3e0d217a 3d816e73 bd0e2555 3e0d8e0b be25d75c 3d9e37fe 3d255b1b 3d43b9c6 3d8cb9c5 3cf35691 bd419c67 bac270a3 3b9e8731 3d9601a0 bde152c9 38fbf745 3e862c58 bca9408a bd456182 bd1fdf58 bd1b5a3a bce110a7 3d421bc8 3c883006 bd073e66 3c093d96 3d03bce1 3daec627 bc4f7a5d 3b9b9dcc 3c011e8f 3b949c09 bc921068 3c9ce899 3ba04801 3cffe820 bcbd59cf 3d5c37a1 3d8c2151 bc1d8d35 bc9d2372 bcac374e 3d5a5fd6 3e8351c3 bc4eaaa1 3acca269 3d26093c bcb77d2f bc569c36 3cf7e51d 3d38c040 be190475 bc774f99 bd80e543 bd2914e0 bd331453 3b5c5831 3a4434a1 bcb999ee 3c0c27d6 bd8969e2 3c20695d bc0ec242 3b75e991 bd7f6127 bab76199 3b0531ee bde3d07c bd0b7b9a bcdb94f1 3d0f1106 bd05652c bd1bb8ea 3caf3859 be0c24d5 3cead753 3b7eaa4c bbb506a1 3cded5f0 3c97ba0e bd3b03e1 3d007a14 bdd06a78 3d91ba6a 3d383042 3d54c4c2 bc1bbb8a 3e022ab1 3db75587 bd05233c be0ae1bd bcf39e88 bc425e4f bbb37f74 bcdb9773 3ceab8b1 bc657a86 3c52863a 3cd2e2af be2d6613 bc008609 bcb57408 3dabf1af 3dcdb5e4 3e2557d8 3db62ba5 3d03cb67 3e1d9188 3d2cca65 bd227ff9 bcb4201f 3cea7dd4 3d2bb44c bd00630b bd549821 bdc7a4f1 bd565314 3d6e6164 3d888800 3d76cb89 3d9daef3 3cd787da 3ddff803 bd724638 3d1a9dff bc88a477 bb393bce bd8222ac 3e085ef8 3d58aa65 3d03a236 3d2409c6 bc856fe3 3d27fb2b 3d85b136 bca4367b 3b65ce95 be27153d 3e1aad0d bce2d386 bcca73fa bd1c2132 bd90cfb1 bcc25463 3c2f2555 3e02d346 3d3705f7 bccd474c bd01d1db 3cac886d 3d999277 bdbbef34 ba19108b 3e5e35a2 bd0a8883 bb80008e be45ba53 3e8c7601 bcc1aad3 bdba99a8 3cae753e 3dda6766 bd503566 3c6e877e bcbf6e0a 3c7fd0ac 3d28c05f bbe4236f 3c416250 bb38f4e6 3d4d2401 bbe69ec6 bd5ff011 3e4c7abe bbb700bc bce0e74f bdbc46fc bcfd867f bd323a24 3cbaa4fc bd5a873a 3d5ed552 bd37617b bcdfd722 3e5b6bb8 bde93e6a 3e1468e5 3e25b5e1 3e975a25 bdcbba3a bb9526af 3db5ef23 bd067776 bd5afb1c 3d14856d bd84e4af bc7b00fc 3d0b5e58 3dac9aa5 3cd65310 3e325279 3de598d8 3d9b5ccb 3d686abd bcd080ec bd6e34ae be00fea1 bd6b8319 bca04670 bd8e0449 3d9e5146 3ce9003a 3db3fa49 bdef5da8 bca1a2c3 bd598a12 3da1f96e be21543a 3e12f924 bd8ba28e 3c5ce42f be09f0f2 bb78b975 3cd192a5 3d86f407 be04a968 3d590e53 3da2f15e 3d50dabe bda4f010 bda297d8 bdf5a48b bd5f2adc 3de7d838 be41fdf1 3c23cfed 3e0cc8eb 3ce485b5 bd22aad0 bcbcc0ff 3b91d1b5 3db840d3 3de89172 3d41aee7 bc80543e 3ca2d8c0 3e06dd8b be66c451 bcd8f2f8 be46d551 bdba694c 3c5e2e81 3c9db11a bda93ff8 bc4066b0 bba67660 3d014a6f 3d9ba094 3ac5d37d bb1644ae bccfd27d bdbc944f 3d0832ef 3d26dba7 bd83d1fb bd0c75c0 bd15af3e 3cd7769e bda1aa99 bd3ef2d2 3dc93b28 bcccaef4 bdc55522 bb9f8e55 bd9626f4 3dccf778 3ca7cebb bd754c52 3d0ca56a 3c7402be be01aba3 3c52744c bdf5b736 bd6e74bf bc48a04e ba65bd2e 3e4c8218 3c82ab88 bd0057ea 3d0d4499 bd98f515 bda5e776 bd3a55ef ba0f6607 bd0320b9 3cae48aa bd15f277 3c4036ca bdcc197c 3ce5e6c9 3a482ebe bc726466 3c6b8c60 bcd98110 3cea5060 bde4a960 3c448b88 3a39f5b8 bcb0cf66 bd66cd4f 3c909257 3cf58fc5 3cc279e8 be1a323e bc478c4e bd1f33d6 bc6e54f9 3dcb53e1 3cc39187 bbae1e95 3ce714b9 3e45a135 3c4f54cf 3d043f80 bd0dce94 3c50995d 3bc98460 3ca17169 3a43c2ff bd238db4 bc6e7b6a bd321451 bd239a4b bc8b089f bc87a0d5 3dbe9410 bb01bd83 3eabfac4 bd2fd2e8 bcdb2264 3cbcab59 3cd09b87 3d0b115c 3c2b3664 3d18948c 3edafc17 3d2b391f bd0bd198 3c98c812 be5e0c61 3b1968a6 bd36c4b1 bcb90838 be13502a 3ca7d502 bdb8f441 3d0a9c2f 3d303b45 bcb0b74c 3d3d6246 3d2bc29a 3c923eb4 bc7f63b3 3c360b8a 3d13cd2a 3d94416f 3ca9fa41 3c81403a bd5cb385 3d4c63bb 3dc4d4df bdbfb5f9 bde84121 bdada954 3c6c2433 bd789fd9 bd8b17a6 bd346a7b bd8f09c7 3d954f50 bd8b05f6 3d5fa35e bae6e731 bd55ee99 3ce0dd1e bd8026b6 3d443d1f 3dd6401e 3d51bcdc 3c043f4d 3c7f8e0b bdc1ad73 bd060a7e bd9ea75f bdad9b1b ba263bba bb564f20 bb77a88a 3d56ce52 bba97ad9 bd13936a 3cab4403 bcea3f70 bc394b27 bd788cd1 3e0bef0f 3e424663 3da35955 bd6efa2c 3d16479c 3e11fb3b bc25fc18 3d3188b0 3bfb404c 3a887402 3dcb585b 395f9270 3d48b8fb 3bf9d9ff bd9857b9 bdde1b44 3c5521ae bd85427e bd5bf8ab bcfb0994 3e1a0eaa 3d82c88e 3d8906c5 3d594e49 3c861285 3ca1bf5c 3ba28c8d bc27b85e 3d5d62aa bd66d150 3cd847af bd24d427 3d43344c 3e671bb5 3dcb11c4 bca1af5f 3d6e3069 3d67a724 3c41776d 3a94657e bd847e79 bb70394f bbccc130 3c31d89a bd8a1a02 3b8ac890 3db836e4 bc015000 bd1b8894 bd1f61f5 3d4724f5 3bdc7aec 3e0ebb58 ba9d6052 3d39cb6f 3d306862 3c29d8a6 3d6f4f6e 3d0fd541 bbe1feaf 3d5abd8b 3dcf586f 3c8d48b0 be2a3910 3d881785 3d40378b 3e13859d 3e080558 3cf1de4e bd67713e bd767fc1 3c71e3cd 3d097408 3bbf4718 bbdf76e2 bced6b63 3d33a6bd bd99eaa9 bd87b963 bd187643 3d3776e6 3d07fc6c 3e9a264b 3d15b627 bdbd82b3 bd76bd98 bc2d562e bcb97e46 bdfec91b 3d156f3b 3ca2289a 3c9a8f08 bbeaf50b 3d365814 3b89ebd3 3bb93efe bda10afe bc591eed 3d9e970e bddfc19d bbf29df6 be482dd7 bdf1477b bd5c5896 bc58db3d 3b9315aa 3dc77320 bdb5b94c bd3d1e7b bd048245 3d850736 bcf5b692 bd582f9a bd51d5ff 3bd62bb2 bd4324fe bd40cb1c bdfce757 bdb80b59 3d2958c3 bc707d32 bc9bf983 bcd123a9 bd61ef99 bcd8de7c bc7bbe84 3d127ec9 bd24b0bc be1afecf bdb66ae0 bd818767 be03ba61 bcda97d0 be1c7f76 bc692ebc 3cc72659 bd4b5491 bcd9e133 3c890d02 be20cb3c bc87b09d bbc0a77b 3d06c505 3d8ce36d 3da63b22 3d170247 bbe2a72c bd590835 be2c2061 3dfaeaf9 3bfb03c8 3ce58093 bd04a881 3d8ca148 3e168912 bc9fc5e8 bcecacb1 bccf7d20 3e09c59a 3c421449 bd7d6a39 3d44e473 bc2d2710 3be6809b 3c41153d bd52a31f bd48dc48 bda7cdb8 3a2569b7 3be48e39 3ccbafea bd10e24a 3c145b80 bcc816bb bd9f0a3c 3d32c8e2 bd1adae8 bd35b66c 3d43789d bd14ceee 3c0e2ef5 3d1e0920 3d6a7cfd 3d89618a 3c5e759e bc82d1b7 bc36ab2d 3daef7b5 3c40e927 3cd5512c bd8e764d bd616667 be098e25 bd15f5d3 3c792f02 bd7409f6 3d477204 bb91f378 3d36514f 3ccc95c4 3d55a687 3c755af5 3d07a852 bce6ffbf 3cb3018a bd4af9fb 3e8f3f4e 3b3d07c9 3b16afb0 bc9b70a2 3d22c508 3d3314f9 3de2a0f5 3cc22878 bb97c44b 3dc29aaf bceb55f7 3d041904 3e1b2861 3d9feaa6 bcef227c bbeaf065 bc6d1114 bda7c881 bcd97143 bcaca7dc 3c914c92 bc01dfe1 bd533ff4 bdaac145 bda4852d bd3cb40e 3dbd7564 3cd70d93 bc73f4e4 bd7d48b7 bd69062f bb5fdeca bcb948ea bd9139fc bb906a01 bd4e23ea 3e1339b6 3d8b9f41 bcb39875 3c4ee810 bd452843 3da9589e 3d2764bb bd3b6d73 3a9cff2d 3c1e141f 3bc977b0 3d7822e5 3c75e536 bca3d8df bca4b331 3d52872c 3dc21ddd bbae18f3 3c5b7490 3df65ac4 3cb8da50 bdfe48c9 3daf9188 bd0597c1 bbe6bb7f 3bbbea2b 3d077f70 3caff44c 3d92b4fd bd232c59 be0ccebf bd7bb6e9 3c3aa473 3d4643a8 3e9fc10b be1c9e5e bca502e4 bd4aec09 bd790cc7 3dbf44f3 3d798f30 bcfe102c bdefddd2 bd379f1c bd815728 3e075763 bd79a9eb bdd54f0c bd302c61 3d5f9aae bd204cc2 3d2772dd bcb4aa31 bbf58e96 bcd0a815 3ce388e3 3c732f6f bd055a83 bd510eb0 3cd1dd85 be8a9a0a 3d85f804 3cc5a46c bc31961c 3d30961e bd6d3ece 3def0b1e bd472847 3c1f7012 3d753ac3 bd2d4d42 3d0d3d87 3d3ec231 bd9143fe 3d944063 bda9ce1d 3cb406e3 3d0f8c67 3d9be397 bdbc1664 3dc23afd bd904afa 3d48c937 bdf164db bdae3275 3c2d8867 3d3a1e03 bcf2b5f6 bc3a3cd0 3cd10eef 3d99f5d3 bcf9764b bdbf920a bcb39e5c 3cc6f2da 3e06fdbd 3d89846a bca03806 bdea58ca be4963cd bd214156 3e0850ae bd4922f1 3d571bd4 bc8b738a bdc83b37 bd8d0c54 be242a98 bbdefc73 3d12a569 3e10d8e6 3d31f5bb bb73d7c4 3c99377f be0b49de 3d82cb69 39a3d9f2 bcd1c414 be2c9031 bd0a88da bf2f45ab bd58003a bc9eca0c 3da2934a bd5a0b88 bcae97f8 3dff7b9b bd234f30 3b99b296 3cff6ebd 3bfac193 3e1ea0a3 3bfc7d52 bddd3175 3d6dee06 bbc07721 3c09e3e0 3ce98dec bcd30be0 3da321f3 bd4b10c8 3d9a8efd 3dee71df bd502ef4 bdda92a0 bd0e5945 3cfb8648 3dcf4d80 3ddb27c2 3d063a8b bcd10b0e 3b373fe0 bc9b06d9 3d2866ef 3d6f3a1a 3ca45a8e 3d3b717b 3d2c692b bb05542e bbb92c89 bdb2a657 be0d84a5 3e031afc 3e0130e1 bcb07878 bdc99aa0 3d51ca9d 3d77ba6d bd3ed423 bc9eb1a9 bdccf89b bd50204b 3d191071 3d09ef5f 3dbd9edc 3c1d8aff 3d96996b 3ca6bb65 3cc810e3 3da0762b 3da37414 3ce881f3 3c6a0286 bbb2f860 3caf7d13 3d6efd51 3cc20db9 3c93575c 3d1ed39c 3cc87b1a bd0605f0 3b2b8e37 bdee834c bd603529 3dcc9f05 3d7158ac bc3dee81 3db8c7c7 bc80ed7d 3d1011c1 3dc04e79 bcbeb323 bc57b48a bc16784e be569baf bd572575 be2fc2fc bc415874 bbcb4d43 3df30c7b bd7d6a06 be1d80fe bc5dbd32 bd17eaef bc3bc5f3 3bb654b5 be44c307 3ceb6e1b bd4c6d28 bd3c1797 3dfdd2cd bdd41d36 3c2e6e7c 3cb6b3d5 3d90affc 3c6261a7 3e0ec1b4 3e4a6d5a 3d061a59 3d4969af 3e432cf7 bd9803cb bc3d1318 3c6a203a bd959f2e 3cfd096e 3d951c26 3dc7a6dc bcd52c60 3cc07b90 3cf3b9e7 be05020d 3c833e7d bdd7f78e 3e621af6 bdc357ae bcd452fa bd1d9771 bdec0cfb be18474c 3c2620cd bd46eace 3da3d533 3ddfef65 be150ca7 3db8b772 bd7fdf96 bcd8a375 3d5544a2 bddf5777 3d1a1351 3d0b79f0 3b7646dc 3e3e1b73 bc9a74cc bdb5352c bc747354 3d5b3506 3b8ff4a4 3d77d499 3c4b7dc7 3d83ae50 bd313e1c bcedabcd 3cd9d2f2 bcb326a3 3ce5c03c 3cd7365a bd25652a be8356a7 bbc7beaa 3d054dfd bd29a92f bd3ebc9b bbe00c10 bce62d0e bcf8421b bd32b1d5 bc3ce305 bce8f14a ba79afb8 3d0a579c 3df417f4 bd85a0df 3d4de935 3d25f4b6 3dc0ac26 3d7f93e4 3d853843 3dbefb8b bd15954a be1b23e5 3d4b8b81 bd875976 38975224 bd96b6f6 bdcb09b5 bbc1806c 3c575da0 3caf2cf0 bcbb039e bce23bda 3d8ebf9b 3d65778a be0a6087 3ca14eb7 bd55aabf be2af1d4 3c8cbd9c bc5a5c6b 3e59e05b bceebdf7 bbf69340 3da142ab bd7d44f1 3cbcabd4 3d12a4d0 bd8e1739 3cc2ce33 3d57ad5e be46dddf 3d176e19 bcb4fffe bc8b92c5 3d8a1584 bb0d527c 3d3e123d 3d357ca3 be810490 3d75a9f2 bd0ee11e bc94fa1e 3eb37cf6 bc37d59a bd2b4dfa bd3d3de9 3e9ce94b 3da2c846 bcb4613e 3b9e0abb 3ca56b73 3c9e838f 3d58d575 3c5f8cd7 3b0f85f6 bca42480 bcf7455b 3d8884fe 3cb64ac9 bd14e4d0 bc87d4fa bd62f7fb bcd11f4b bca28937 bb519f11 bdceab10 bbbe5a59 3cca6319 bd99239e 3d74c2c3 bd17e8ec be0c8a0a 38cc2518 3d50f6dd 3ceef779 bb773826 3c9cbb68 3bbac93a bdd06761 3bba2d33 3cc79d15 3c18036b 3d39314e bc228982 3da71463 3df34afd bd1e0ab8 3c997ff9 bbfbcea9 bdce4eb9 bc3af192 bca76bd0 bd3d8eb8 3cfec847 3d0cfe28 3b74f075 3d6c3751 3b24751d bd34ea74 3d76418e 3da9ff40 3cbecdc1 3d633bd0 3cc5a9fd bc9a24dd bb8c80fc bb0e840a 3dbcebce bc090e47 3d01cc5b 3ca581cc bc4a12af bd1ca51d 3cb4f7e0 bbaa8242 bd73b104 bd0020eb 3bc3faee 3bee161d bdb50005 bb1dabbe bd4208e0 3dc034e3 bcd02f83 bc21125e 3d50d3d9 bd4494df 3aa22754 3d510c81 3de977cc 3dcad0b3 3bd39b11 3c60afe7 3db4449f 3c82ee96 3dbdafc9 3dd5928e bc7179ad bbcde0c0 3bde173a bcbbd7b0 3e07ca67 3d36b6f5 3d80fa94 bd9524d0 3bf776a2 bd668c7f bd7626ef 3cd1c750 3d01480c 3e5e8577 bc37ce37 3caa4f6b bbb1253d bda76530 bd0b33c1 bd034a1b 3d81b6ed 3df2d2db bd106792 bd863f7a bce87407 3db7c846 bc856cab bde10611 3e6392e0 3cdae5d8 3e9bf72a bd6657fe 3c12384e 3dd142ba 3c35ecf9 bd49ec8a 3ccd494d bc7aee85 3e2b79cf bc599cd2 3d3d0a6b 3de326dc bd0eb55d bd82d432 3dbc3d27 3d90ccdc 3e188944
body.stage1.4.4.weight 64 3d19930e 3d91ff40 3d99c7df 3d017a3c 3d646a17 3d1c906a 3d2c0c67 3db28aa8 3d7f0bcc 3deaf563 3e0f8bcb 3da38971 3da706fb 3d096e43 3dc8f0f3 3db6e0df 3d81c734 3cffe1c9 3dc3931b 3d11f664 3ddac532 3d591c3a 3d332d3d 3d31c7ff 3d57ecdc 3db03c16 3d4c5c6e 3dc438dc 3db1f518 3d9df590 3dd239ed 3da0de14 3d5925b2 3d201183 3d0eff93 3d71a155 3dba4b63 3db5dac1 3ce75570 3dc29955 3d4812ae 3dd701bc 3d922b00 3df4b8a1 3e1a87c1 3d89a398 3d8de1e5 3d1eacfb 3d65e4ed 3db6d43c 3dc28f2e 3d7f9aaf 3e2a0a0c 3e0e8649 3da418a6 3d66c0fb 3de95298 3da2dfc8 3d97dab5 3de83c2c 3db06ac7 3d2984f3 3dc7c675 3d0caa77
body.stage1.4.4.bias 64 3e6591e3 3dbe1690 3e812276 3e5497d7 3d89f55d 3e20322a 3e26666d 3dff5746 3dd6ca38 3dae6401 3daa50c6 3ebfac31 3e023afe 3e135b5b 3d9b530c 3d108a22 3e94c9e0 3e5185da 3d92ff20 3dc5635f 3e07cbd4 3e98a06d 3dc55f05 3e16ff2c 3e3bade3 3dc2cd46 3db8959d 3e498814 3da1a144 3d3b31a0 3cfd9fc2 3da147a1 3deb2b35 3e11ee4b 3e2b5924 3dc2c31b 3d837990 3d69fd50 3e4914b4 3e4545fd 3e35fc8f 3d4fd421 3dc671bb 3dc3126d 3c1a3168 3ea9f5ae 3d927268 3dcefc70 3e154420 3df26c1f 3da220ae 3e90c100 bdee82db 3dc665a3 3dfb750e 3e4abda1 3ddc2fc5 3cd40e7d 3e17a8f0 3e6142ba 3e144d98 3da8358c 3df055ff 3e15e039
body.stage1.4.4.running_mean 64 bda2e5de 3d503309 be46dd4b 3d152f49 bd9bb771 bdb12732 be66f61a 3e067fd7 bdefef21 bd8d671b 3e37aa2d 3dfe416c be4df401 3d836c7c 3daaec8d 3db36e01 be581833 bcc90bfc bbee61a4 bd0ad0fa bdc6bfb4 baf4d301 3d5925e5 3df0047a bd440e81 bd34aeef be0d5355 3dacc4bb 3dc01940 3de8bd1d be31eef7 bcdd0bff 3e165c3d 3dc6c890 3e3b3a7d be3bf165 bd708d5b be1f4e40 bc36a1cc 3da78cf5 bd918268 3df03c3b 3de07f68 3d948409 be462d62 bd91f574 bd819bca 3e373cdd bd625c25 bbb4fca0 be385c2b be06ddfe bd66b941 3e48288d 3dd1d030 3d4b3e3f bd71679b bc616f48 3d51ffbd 3d6108d1 bcaabe92 bcec4911 3dd95ac0 3e66a927
body.stage1.4.4.running_var 64 3ac9627d 3baad1ba 3c2b2a6a 3be46313 3ac3b8c3 3b23861e 3c16576a 3c583735 3b05f424 3c2ff7a1 3c0d6e56 3c39d6b4 3c38ccbf 3b0228a8 3c1364e3 3af4bfc6 3c38cedd 3b26548c 3c159e70 3c0e02c4 3bafca02 3ba0a5cc 3cb134ab 3bac3731 3b9f0c41 3b8aad50 3b3918c6 3c101c64 3bb62028 3b0c25b6 3b370146 3b53aa82 3ba512cc 3befc01e 3c4b48bf 3b8a3327 3b9c8aa8 3bd8d761 3b3887bc 3c36dfeb 3b3bcc1e 3be82112 3c11a376 3bdc5f1b 3c28307b 3cae8285 3b185f84 3bc92310 3b968697 3c9e0b2b 3bb93675 3c05b4fa 3c625c64 3c17bc98 3bc00fad 3c27ff8a 3c03468f 3ad0d641 3bb16506 3c1d05f6 3bab145a 3b4e556b 3c764434 3c78bae5
body.stage1.4.4.num_batches_tracked 1 47aff500
body.stage1.5.0.weight 576 bd0d0712 bc381068 bccff5ee bc419aea 3d589ba7 bd160e76 bd72a10b bd94dd17 bdfa8eaf 3d13b378 bcbd3f72 3d3689b8 3a8c7c07 3e5b0db5 3dab63ec 3caadc2d 3d207c53 3cd22507 3d9ca523 be8c900a bd9447e7 3ddb08b9 3e931c41 3e515d73 3d872432 be55989c bd1d82bb 3c3011a4 3cc38762 bd040e5e bda77fcf be5d9e1c bdcb52fb bc130425 3c612b8a bcafadc9 bd4c641a 3de57e74 bdbe657c bcb9a514 3d57b300 3bfc4d0c 3d91a213 be082aae 3d8205ed 3d7372f3 bd2e1cd2 3b341e53 3d0c5f3e bdf9142d 3e18db5d bd67186a be02e5b2 3e249bb8 3d9b7620 bcc88715 3b30a298 bdc70442 be87c919 be1813a0 3bd8db5b bdaaf074 3cff2354 bd7d9b77 bcad593f 3d0c993d be86ec96 bd9f0f26 3ebafc30 bd1699d9 bcd10bf3 3ce83823 3d086b7f bca7f4c3 bdbb9188 3d9cc1ed 3e51501f 3d582f61 bdd75ae0 3a4fb23d 3cff8485 3d8c3572 3e8489f7 3e113714 bd030ec4 3be85b83 bd042f6b bdcfef3f be43b0f3 bde11564 3c8c9b7f be1bd48f 3dfc458d 3db5e0fe be743519 3e28d822 3d571254 be43581c 3e0cbe48 bdef8dcc be139c40 be2a7220 3e26840f 3e60d42d 3e70325f bd8ac52a be2731b1 bdc854c3 bda7c7d0 3e196901 bda2538e bde401da 3de716d3 bd782627 bde6bd70 3ea306e3 bd832d39 3d447b3c bcdf0ad6 3d162589 bdcec50b bd14c16c be018fca 3c81744b bd03f105 3c48c99b bda8d667 bd9c8f4c bda2358c bd0442b9 3ed3cf34 bdac5641 bd472194 bdf5b597 bd9ee33e bc03533e 3cf04ae2 3d0a022a bd57164d 3e87aae9 3d2a2913 bd9dd51e 3c6e0dae bd3838b6 bb6171bf bd0e88a7 3d544f14 be469900 bdf05d2b 3eb039ae bd9f0424 bda07440 3e212e98 be296156 bd208961 3e33756c bd38766f bd8d12e3 3e11c4d5 3e05b62b 3d540efd be24cc28 3cecc2d7 bcf9f82e b8a823bc 3d133db1 3e85eee3 3d960f97 3d5a8b83 bd497ddf 3cb1c3c9 3ba22d48 3bafc114 3d961333 3d71a356 3e07f5aa 3df83280 3d4a64c9 3c818b0a 3db7f852 3d5cbb5e bc2f5035 3dcfc79f 3d8d10c8 be8bf639 3c8126fc 3df44290 3dcf6b3e bd2eae3f 3c755003 3c81fc5d 3c8bd82f bd6068ea be48322d bdd44058 3dd91b2d 3e698b83 3e36fd41 3dd5e5b0 3cfbe6d7 3e6fe113 be5c7ac0 beb6c3a0 be8a6eb5 3dfe2bad 3e372f30 3e0a74e6 bc5a4cbc bd0d1e96 bd8289fd 3e164830 be768b9a 3e10fd8f 3c74ccc5 bd7ee5dc bd3ee4fe 3d151393 3d563b3b bc9b7a32 bd2e0dd2 be34a16a be10a6bc 3cf65aa1 bd1f0a5a bca59934 3d8f6c70 3cef3c41 bd041267 bdcef808 bd7545e4 be083281 bd863602 bc1fa012 bcd54686 bc504acc bdc3e0af bd7167b1 bd48abbb bd165e43 bcb18a98 3c93963a bcb7af8b bd11cb70 bd9f58e6 3d09452e bd896dbc 3c6fc98d bda9b932 bc732bc1 bda34a66 bd4c2033 be1fcfb5 bd187b5e bc92d0a4 be20c8d3 3d0b8503 3e915eb0 be821920 3d245978 3ded3837 be187411 bd158986 3d8e9e1b bcb7bac8 bdb0f9b9 3e2b0022 bdc98830 bced5e76 3dba66df 3b710a47 bd950c1c bdc1d87b bde857e3 bc22adc8 3e3290b2 3d366bc4 bd58170b bb30a4a0 3e0ab771 bd8b6e4b be02cdfc bd9748e2 3d4aaf15 3e1af3e8 3dd323b3 3cd4357c 3d2eb29a 3ce82411 bd7eb082 3e1147ad bbb05da4 3d2f0bfc bd81ffab bd6788d3 bccf5ef0 be2ba87a bdce3e1c 3d353564 bbd46ef7 3cd2d753 bdb37b31 be3f9e96 be261511 3bada249 bc9a4809 3bcab1aa bd0579d8 3d8ce964 3c2be21c bc138819 be928dbf bd8a2165 3d2aecf1 be4f8a15 3c4e0ece 3cd7cd4f bd060af2 3c421d57 bcfb6cbe bdc30a1e be1bcda4 bd502d26 3cdbab32 bda19e6e bbee50db bca4ed40 bc0e9654 3d3a4996 3db55f0c 3d6d0149 3c2e9b34 3d44145b 3e2ae614 3b95de1e 3d5e4680 b97d90d2 bdb49948 3e4f996e be0b2f1a bbbec3f5 3d976be0 bd326892 bdfce27d bd70b7c4 3e127b95 bdcc901c 3d3444ea 3dc1c696 3e5bb376 3da08209 be8aa264 bb88887f babdb79a 3d108f0d bd8f6361 be672c33 be0a39b7 3d0debb0 bd94967a 3bccf2bf bcf3565c 3c2ef562 bc52d0e8 bd993853 be142bfa bdf0898d 3d6ee13a 3e5b3d48 3e06b4f5 bcfd214e 3cf74c5d bd3fa5de bd129c01 3ea324e3 3db9ec0b bd9c2c47 3cff747b bd6283d9 3e81e91e 3d7096d7 be64783b bbcca847 bdedb7e3 be41e4d7 bdee5f0b bda88c06 3e9346aa bc575481 3c610be8 3c5efc00 be1a0fdc bddd7686 be054b10 bd632be5 3bff6b8d bd1c3a39 3d4e46e2 3decda92 3dcbac6f bca96572 beaa6279 bdede204 3dcd7a10 bd1218ca 3ded2fc3 bdbb8e96 3e35c307 bdf0e868 be25943c 3f07bdb2 be803809 bcbc9f43 3ddf9a8b bd9b603b bdd081e7 3e24b535 bd8942f2 bd609392 3d841119 bc11a083 3dd192e9 be3334de 3d940ab6 bc313c36 bd02eab9 bd4330e3 3d015b27 3e360bc3 3d336369 3ddaa2dc bc48769b 3c7ee9b9 3c66d5af bd999c26 3cc90376 bdaa3a76 bdf75829 3e841cfd bd068de8 3d04555c 3db82130 be3bff25 bcdcf523 be66702d badecc04 3f13e732 3cff59fe be1af7b4 3cabceb5 be03710a 3d264201 bccf1bfa 3d6da184 3d411592 3e0b8aeb 3da41dbe 3d124006 3d31bca6 3ceefb26 3de9e1fc bceaeb26 bd9d338c 3e5945d3 bc737ba3 be397a12 3e2e9132 3c085d00 be00cc1a bdb7548d bd6be970 bde03064 bd1c9507 3d657354 bcc1d8bb bd5a2f7b bcd78bd6 bdfa574c bdb1523a 3e0426bb bcbffd40 be5c89e3 3ea08e02 be3a62b2 bdf23a21 3e554d40 bdadb5dc bda7a462 3cd0bbef bc11525d bdbdcfa9 bdfadb95 3e8fbc17 bcaa437a be2c973b 3df6049d 3b1ac53f bb04affc bccd49c1 bd40d04e be0902a1 bdf21b76 bd4afb6b bd1f4400 bddff9c0 bd5c9860 bd4ed150 bd91398c bdcc3e39 3eb45068 3de43835 bc8efde5 3d4f3a07 3cb458bc bce2c899 3d99d31e bcea17ac bc3210b2 3dd06d58 bd97f2b3 bd1af701 3d9cc029 bd8e2dc7 bcb664e1 3cdd352d bd555760 bd18f439 be4a46ce bdc9241c 3c0a64db 3c9c6909 ba49aae6 bc970b4f 3d6cdaf2 3ca5af12 bd20d591 be886836 bddce3bf 3dadafd1 bcfd5ab8 bd9f0c92 3bf5580a 3dd383c9 3da5ae04 3ddca707 3e1de4ee bc9cf736 bc765fc4 be0d1e66 be15524a bd82c867 3e3f61eb be125b38 ba97d06c 3d51747c bc707926 3d0cd3c9 be6a3efd 3e06f6c5 3dc7360f b8a24d5d be2183e2 3e962a0f bc1614a4 be804463 3e45f2ca bd9ed0e1 be13f0f1 3d072768 be132ff6 3cd44657 bcc86f8b be1ebc4a bd61b6aa 3d00160d be2bbeb6 3d376a3e
body.stage1.5.1.weight 64 3e6d80ba 3de1fc4f 3e3ed5ea 3e1e4649 3e1cc231 3e3de589 3e77173b 3e63a3e5 3e47a06e 3e43e5a8 3e2c16cf 3e7f530e 3e3b2dfb 3e35e3f5 3e84d7c8 3dc4d947 3e85a3cf 3e4a9e92 3e185444 3e0145b9 3e32db58 3e85f8de 3e5bb43d 3e8499f7 3e4331d4 3df71599 3db4faaa 3e828fc4 3e4e4e21 3e1d339a 3e2ae8a1 3e18b7a5 3e28645b 3e95bea7 3e53241f 3dd3b484 3e222782 3e3f7661 3e416a61 3e6536bf 3e4cd848 3de9d48c 3e6d33a8 3e4b1d7a 3e45adb2 3e6e78cb 3e1d2093 3df99a42 3e4121ae 3e3ab63f 3e3c2693 3e5e5b2a 3e4f355b 3e35db16 3e464f17 3e1b3130 3e0fe5e1 3e305b61 3e19a95c 3e5eb30f 3e47d8e5 3e29f730 3e45a8ac 3e9e6384
body.stage1.5.1.bias 64 bcba3d2e 3d33dbae 3d27ce6c 3dea8071 bcd2663c 3cde3953 3da5d448 bd3d6ad2 bd63cb5c bc46d371 3bc71b5c 3dc18da1 3db8de69 bd778ad1 bd11ace6 3e0f31e9 bcea25cb 3be5b02d 3d92f28a 3e37429d 3ce18a74 bd4c13dd 3de5dce4 bd9ff1a1 3cc607e9 3e048728 3e578ed9 bd3d2087 bca5cc91 3c7a7b6d bb588a80 bd0f8c55 3e29e429 bdb7ed36 3e115d6f 3ea78635 bcb3033a bda157e2 3d19d63d 3dc3be7d 3d267fcb 3e0a2af9 3cbf5873 3de3a893 3bc87dcb 3de4c9b7 bc156dff 3dc0fb33 bcc56c7a 3e937f70 bd625f2f bcac7f2d 3e196d7e 3cb892a1 bbb38aa1 3db3a08d 3e324f7c bbea0721 3d473ded 3d9688f9 3b03a0e6 bce3083e bbdb139e bd8c4d55
body.stage1.5.1.running_mean 64 bd8fc5a3 3d2e50c5 3d1676af bdada7d0 3a2748b6 3c093a42 bda686d2 bc08abed 3ca15301 3a5e21c9 393cc05f bd44dd65 3c308a57 bcf6f00d bc534acc 3c1f6d50 3c5953dd 3b858026 3d019939 3d56dbbe 3c97339a 3d724372 bb93a0ef bcbefe38 bd7050b0 bd04815f bce6de12 bdbe6775 bc22c741 3b510839 3929061d 3c3abb4a bd05768c bd5dfdfa bd9e3f26 bd0d387e 3ce346ce 3b9b1fb5 3b90cea6 bdab44df 3bbaa9de 3c669e39 bc571242 bd407c02 bae8fd31 3d0d2dc7 b9e95207 3ce00dca 3c7aab95 bbfe3107 3d25047e 3caf13a2 bb0fe231 bbc52d74 bc0792dc bdd193a5 3ce15527 3a189b32 bd56161d bdaa4b3d 3ca467b3 bb7564cc bbde60ed bd750afb
body.stage1.5.1.running_var 64 391706cf 39be3319 3a3488c9 390d41e2 38817bbf 393e0fbc 39ba460b 3a40fbc5 39857707 3aa88a9c 39c4fcf1 3ab46020 399c11e0 3851a4a8 3a0bd110 39dbc804 3a66a756 38d0156d 3a08df36 398a33c7 396cc6de 3a134742 393c76f3 39226424 39766837 39e07943 38d2c6e1 3aa84133 3a494753 397edc21 399aa270 398f2e47 39703cb0 394d5cf1 397df8be 397c80c5 396c1246 3981124d 389fa922 3aa8e8f4 39857232 3a633292 39dc0662 3a99509a 39967d6f 39d8e403 391bd109 38d26c44 39b3b838 3a541067 39d09867 3a4082eb 3986ad33 3a24e7ef 3a053534 3a1c3729 3a8f336d 399a6e06 39a4d59d 3ad2d22b 3a17fe3f 38963e81 3a7f6fe2 3919be62
body.stage1.5.1.num_batches_tracked 1 47aff500
body.stage1.5.3.weight 4096 3c186d08 3d034251 b8d96879 3d7fe9f1 3d262433 bd00426d bcca4e03 bcfe2af7 3de6807d 3d7cf396 3cea4219 3c8651bb 3c667cc1 3d46a583 bd247055 3d323c7f 3d20ac57 3d3382a8 3c204ab2 3d63a82f bcd857ab 3cdd596f 3e25056e bbe4ced1 3d5b7e37 3bc032d9 bc40006a 3da256f0 bd3fd805 bd2e0a2d 3d13a6ad 3c98d478 3c9c036b 3d17394c bc05a440 bd3f7a55 3c762ff3 bd9e6c24 3d7178a4 bcf617c6 3d29bd0d 3c83b9c9 3dba582e bd93a46c bc81375a 3bc57310 3da71204 bbbe93e5 3c87d57b bd8950d7 3cb4d09a bad5ed6e bd33e3b3 bbde50a8 3c7b0a90 3cf0bd27 bc1c5e99 bd4b2795 bb6471da bc84dc00 3d3830dc 3d20a086 3d446425 bd173031 3df4f66f bd557bbc 3b9132d3 3bbf67d2 3d5d782c bd842788 bbbeaa49 bda84fd4 bd17ba21 3d2ba37a 3cc27469 3d49f35f bd2eeac7 bb28d2cf 3d2bd591 bb0daaea 3d4b8b6b bce828d5 bd95ddc7 bca3f7f5 bc816122 bd4bee74 bd3f9c75 3c2c297a 3c5365d3 3cbe377d 3d115091 bd05967b 3cabdcc0 bd2feff9 3bc77d42 bd003354 3d5fcfe5 bc3b30bb 3da2ca95 3cc2c415 bcb41489 3d1f4c33 3d14cc73 3d0f95b7 bd03c64d bba7bcf0 bcd88218 bc83edbb bd2e9238 3c127655 bab8fbe2 bd19071b bd4858e7 3d4f5f07 3ce7f798 bd29a788 bb4dfdb8 bcda51df bca00f1b 3d60edc8 bcad42dd 3d087b9f 3b89f6b3 bc83bf60 3bb239c0 bd06b9d1 bd2e1479 3d0fb295 bd038a10 bc762ec3 3d3a28c3 bdad1afe 3d3472ad bcd460c0 bdc778af bcd55c98 be0c7437 bdcdaf48 bd838111 3c48c0ad 3cd20b09 bd3caf3b 3bbbe029 3cecf5c7 bbceda02 3d930b4f 3e3c205e 3a009dae 3bc8aeea bd9f0e4c bbc6d514 bdb1276b 3cafccc4 bc1a771b bd10508a bde2ac75 bd4b4aeb bd35016c bc54e422 bd19678d 3dbd8ffa bd58c97e bdf7f967 3ac16ab8 bd76acfd bd898229 bbbf70f1 3d93e0eb 3d8a06a3 bd9be6ca bd27df54 bd97d11d 3dd31485 3c4b67a9 b9b4c218 3e85743a 3ca0bb17 bd2230a2 bd2e26bc 3d613974 bce08a3c 3d1de64d 3c96d69f 3c200b64 3c58a6f2 bd09cfd8 be043638 3d0ccc7c bce70f3f 3c22e924 bca5d5bd bda3adef bd8f4186 3d9f9820 bdb32a04 bcbdf604 b774f47d 3d1f0722 3c983fa5 bd1664a2 bd50297e 3dcb8bc9 3b94717a 3d8847fd 3dee69ef bd5a0af1 bc51afed 3c0dee06 3c33a0f0 bccaaee5 be47ea09 3c8593cc 3cc414eb bd098a47 bd2f9b65 3bab5bdd bdd42d5d bca44720 3db7a8a3 bd2fec5e b87ba5d4 bac5b804 bd5b60a8 bab57918 3d6dc5af bd4c2968 3d10d830 3d367da9 bc2f86df 3c768198 bcdb4cde bbb8f2ae bc29857f 3d45e32d 3d0fac34 3d0157b5 bc51ce99 bcb77476 bc0b9efb be3504bc 3c5f2d14 bda9a21f 3d61e533 3dbd77c6 3ca4a8ca bcc445d6 3d2b4856 3dba9b01 bdd388d9 bc320f43 3d46a1a3 3cb61bff bdf08f5b bd1619de 3df241d5 bc8f15d8 ba895aea 3c8783f7 bd6dddb4 3d013bae 3cecdeda bd0b7598 bd7a56ef 3d74ff97 3b0b0475 bdff0374 3ce837a4 3d793a87 bd08a104 3b452000 bd67dee6 bc805839 bc8dabc5 bd7a4d51 be07eaea bca752db 3ca621e7 bd9bba97 3da22159 bbac0d23 3cd9bbba bc63d92b 3d521cde bc05ffd3 3d226148 3c9dd4f8 bd2629d0 3c243398 3c9a4434 bd8bea66 bdbf2b44 bce5986e bda1457b 3cbb8239 bc8cd1b6 bd8b958b bb7a4fad 3db8252a 3df9f203 3d175945 3cdeb09a 3d8a8ae3 bc4d93d4 3d254bb1 bdf9166e 3c68fae3 3c299224 bc1d9df1 3d4ace0e bd881bb6 bd2373bc 3e26f2fe 3de9a42e 3d23263d 3d2b1464 bdcb6713 3d900253 bce0a413 bdb6f546 bd855fec bd787bc0 3b20be93 3d6a8a43 bd72c748 3d432be9 bd7af844 bd1ec048 3d845a42 bdab6fa4 3ce06660 bbee2c17 be1de75a 3c21b3ee bcfcf329 3dd9730a 3c6d1ab5 bd517e52 bd93a8f4 3e3592c9 bd07ec01 3bfa7a66 3db7dc83 bda7f5e7 3cda1c61 3d7d5990 3c238a7c 3b8551d6 bcb549e0 3b8b7818 3cca3444 3d42d7b4 bc351a3a 3dee5160 bc45e0c0 3dcd37da 3d552b25 3c93809a 3d2dc93d bd86d0e4 3d36daa2 3caa3cc8 3cc2b809 3d1546fb bd05d906 3c980940 3c3daaf7 3d50ae46 bd50fb77 3d193dd9 bc875b72 bcada51a bdd457a7 3bf34d06 bd5eaa0c bc726c26 be04ff59 bd63c686 3d24af2b bda420bf bc1ec031 bdb47ebe 3c708016 bdf6f47e 3d6164fb 3cf6c380 bd5a2074 bda9f305 bcb8c0ff 3df6d352 bd97a2a9 bc612106 bd1ffec2 bb8515cc bd2ae4bb bd03b11d 3d6a3f3d bcb31266 3cdd58a9 bc207fe0 3cfab84f bac22759 3d4e3441 bd8cec31 bcf5d079 3aab02f0 bcda9525 3c89ed9d 3cfdf5c9 bd22137e 3c55af3f 3d94cf80 bcf2c515 3d716380 3d65985e 3cc09d9c baf98d11 3cbb58bd 3cd41459 3d89d105 3d963c28 bb3f3d5a 3c936a28 3d59a55e bca8b43c bc63aa24 3c88b8e4 3bcff48b bc1f245f 3bf2e7ad 3e004b1c 3e78ebfc 3d68290f 3daaf7c7 bda3fbaf bc6fb72e bc686159 3acd7112 bc0599bd 3e660ce6 bd65d0cc bd14258e bbaf20eb bd61a70f bd27546e bd35c320 3e24950e 3db0aa15 3cf0fb4f bd8358ad bceecf2a 3df485cd be14926e 3d02b73e 3ba4d1d1 bd97c6e6 3dc6b425 3c29ba49 bd607fe9 3d3a3f20 bc836bf7 3c96a544 bc1eface 3bcf57e7 3da733b8 3dd45e21 3d909e20 3d91e364 3d6ce69d 3c7b5f45 bcf98088 bd27fe66 3bc7bcc5 3c1b2c25 bd360897 3c968fec 3bb60497 3d026aae 3db2af96 3d4ecfb3 bd10b618 3cd1e715 be1ff997 3d359c13 bd8e6ceb bc026cd2 3e2a2fde 3cbe49cd 3d6c53a3 3c16c8b5 3bdabe31 bb393fec bd086db2 3d02c84a 3c3e24ec 3bd3af17 3b7c24e7 3d411e01 3d2e9de9 bc1cc1ff 3dceceda bc8c42d1 3c564924 3ce0fab0 bd4b674c 3cfeaf3f 3da7fe82 bd7f1481 bdb4ae5e bcc42086 3c8dfbb1 b9ce63e8 bd2672ba 3a0b27e4 3ca3d7bc 3e221f27 be5eb5c4 bcfb11eb 3d4f09ef bdcc405c bc2afa18 385b09b2 3d72d1a4 be0a8d14 bd9c2390 bda77199 3af62941 bca9c45b 3d9b9c32 3d32c010 3c4bffeb 3a761557 bdbf0a4a 3d757912 bd40da19 bce99a7b bcae5739 be1b2a69 bc294d4f 3b240568 3cb2b6d1 bd3eaf52 3d0b2ef9 bc52b48f 3c13d5eb 3d0aafa8 bd447c09 bc3206e2 3c1685a7 bab15be2 bc90bc2a bdcb0b7d bd677fd2 bc13a925 bc956a73 bd042a91 bc9e7a88 3d6da432 bdd29c97 bce65851 bce49d87 bd3319af 3e3a67e7 be0135ff 3ce9da8d 3cd2cad7 bb4ad01f bb89be28 3d886867 3e04aba5 3c1247c8 3bdf36bb bdbf7eda bc9977d4 bd16e640 bc2b45a3 bd89b3cb bd0b6a43 3d5c909d 3bc9caca 3d666c93 bc43b424 3c4e6720 bc16d3ed bd07a1a8 bdad783e bd3d1d40 3e013e80 3c540f5e 3e7e32ea bcd586ef bcd00e9a 3d540174 3d3fe532 bdcd393c bcb1f86f bb1b6bab 3cdaa56d bda22318 3defe68f 3d68c0d1 be06b5d9 bd85671b bd1fbd1a bc80e598 bc8a9186 bd109901 3c51e7c9 bcf35199 3d331400 3c23940e bc0a173f 3d5ac933 bda7fc79 3c8102d8 3e27a769 bbc6db1c 3d19f5b1 be3a94a2 3d670d77 bd808afa bdd37d3b 3d8022b8 bb0fcb2e bcd2bf2b 3cf66f33 bdb2ab94 bdf49a73 3d3a5275 3d41bf5c bddfe0cf bc42f690 bd8e978a bca5039d bc0eeb19 bd93496a 3d06c9e5 bd3ff3bc ba683a5b bd8b9ee4 3c967cc0 3cdedcca b9fdaec9 bc843653 bc5b2a68 bc9ca587 3bd0000d bc738404 3bf6bb17 bcb26f07 bd807f0b bbf45776 3d46407d 3c7fe313 bb1fa8a7 bcf87ffb be1d7996 bd85cde9 bcdb6350 3db568d9 bd461e8a 3d01ac73 bdf0625d bcbc02ec bcae054e 3d6a3012 3c5368ac bd10b68b bd9394cd 3db4335d bbaeb503 bcc193a3 bd32cf3c bdab054a bd09a93d bd3444a4 bdc06f55 bcf16b42 bd0acc9c bccaf835 bcb1f9b7 3d7e455c 3be466bb 3ddbdf2c 3c4d9a5b 3d6c65a5 3cd1328c bd9448b5 3c9767ab bd5e44fe 3d9e0908 bc6fbef4 3d109b4d 3c75cca7 bdf00faa be052e33 bcaa1020 3d95f3c6 bd96b4c5 bd1134ae 3d19fe5a bb9e30f4 3c857cc2 3e128967 bd7864c6 bd69804b 3d6152ed bb581c75 be09b586 3d3c7cbb 3c1ac108 bcfd1128 3c9a36e0 3ca3bae3 bd61f671 3dfc78cc ba09683b 3d8054cd 3b32d4df bd3178fd bd1e7ffa 3db28a4f 3c2c8d5e bcef81f9 3cf0de36 bc04a490 bd885fab bd6d036e bca60240 3c922a95 bd2bacd7 3cff7147 3c122637 3c62bda6 3cfd7a5c bcb1e85e 3d5dcd85 3c57861d bd8b4260 bd04b4b5 bcc4378c bd1a73bc 3db89565 bd0b3d3d bdbaee2f bc8d0880 bb55d8e0 bb69e586 bc959a54 3d6d8a96 bd4ea0c0 3c896e95 bdb0c66c 3d3b69e6 3ce16a08 bd262921 3aea1bb3 3c0bc906 3c8a94cf 3b390ed8 3d0f1c91 bd70fb95 3d02daa4 bd908777 bda8506e 390adb06 3c9bcf34 bb708f76 bcf386e8 bdb10f56 3dbde7dd 3d5f6a42 3ddb3806 37ef92a7 bc02425c bc58b92a 3d7e01ca 3d030a02 3ddc990b 3cb0a6fe bd1ced99 bcf0fecb 3c13c41e bd97452a 3dcb6467 3b8dd8a7 bd6700ae 3acc10f5 3e7f22ef bd37ada0 3d9c217a 3cf19bee 3d22a911 bd08ee7c 3c107968 3d06c40e bb4ee84f 3d3466aa 3d002f29 3cf334c9 3ddf647a bdce5a03 3c5ce093 bdbdca97 bc910ca0 3c8ae289 3af5c8aa bd1b63c4 bc7b97bf bd02e340 3e8fd3a5 bd771809 bd9278e7 bc4c4d87 bd15ea5a bc42d3a3 3c70a262 3d0566b2 3dd69362 bd813db2 bc4e0d59 3d1963ec bbea5238 3dcaa285 3d16b94b 3d5edfd8 bca13a38 3ad731bd 3bcf0eb2 3ca3268c 3c50b4f3 3d97d631 bdf1c22f 3cec61e9 bc2f0198 3b9fa7b8 bd902784 3d3a797d 3dcfb18e 3de54822 3df75330 3baf5830 bdcc45ea 3ca1c925 bd22bebf bd9500a7 3cc20919 3d1d0b0e 3cbcc38e 3e436939 3da6ba57 bcb85e8e bcb18bba 3c6dcceb 3d5aaad7 3cfc9a84 3d987271 3cda68b8 3cf9660c bb07053f 3bb441bd 3d864193 3d93ae17 bd228434 bda3aedc bc86fec8 3c426bec bcacb5ce 3d4bbfe7 3d601358 3dabdc7b 3dd09722 3c3813a9 bddea27a 3bba92ce 3c969bb0 3cc70b15 bd2b819a 3d30606a 3c92683c 3ccf000c 3cb274a8 bc179a76 3b46676c 3e280f08 bd060b57 3d6b3d0d 3dc91043 bd781518 bcd54353 3d80bcd6 bda08df8 3d105ca0 bd4813f7 bb9ce431 3da35a76 3d29c7b4 3d164291 3d1574e6 3cff8fcd bd53fd56 bbeb898f 3db26699 bd88d11b bc52204b 3df83005 3e0c404e bd767fe2 bd11d7dd bcafac74 3d3afe26 3c8383f9 bd87da21 be0a845f 3d05afbf bcbf06fd bd9e0775 3d59e181 3c503dc3 bcfb097b bd9316dc 3c88c11a bca9187d 3d2320fa bc880ad2 bc31afce be01affa bd6dd872 3dbb4a5c bdd74f08 bd3249de 3d0d6d2c 3d53443f bdc5849e bc7fb264 be0fb71a bdd9dd18 3dc3a415 bb0a5d17 3aaf8bf1 be4b8607 bce645aa be1e634c bca0990c bda3c88e 3dd2b699 3d71320b bc982303 bd91b877 3cb1992a 3e318172 3e1c3b9a 3c678b7f 3d6d962f 3bfe8f07 3d673753 be0ab32f 3e15313e bd3248a0 3e08798c bd676b98 3c48826f 3c85e3d6 bde4e9e4 3c66caf7 3c7b16bc bdbaba1e bd4a908c 3ab2bc50 bb57a941 bc4e19f2 3be90b39 3d5c10af 3d95dd08 bd222c0f bbdadd48 bb69e4c3 3d032b2f bd18f0c0 bbe4275b bd25ccc0 3e438c4f bd1c7717 3d590556 bcd6dd67 bc8070fa bd9fdd22 3d4585fc bd2c1d9c 3cd8123a bd8938d1 bd1b9fcd 3d55264b bd1851a7 bd2ede4d bb9b5d59 3d835e0e bc826508 bc0e80cc 3d963318 be8b8cf5 3b863686 bc7ce7cf be1ae1ca bd2a75c4 3cdeaf9b bcd83028 bb1e71e5 3d9b92e5 bccfb5f0 bc31ad5c bd0c820b 3c9abcc8 bbd7cd15 bd24eba1 bd283013 3c90c677 bd527e82 bcb75b1a 3da5e95a 3bdca15a bd9d5561 bd0f8f37 3ce270b1 bdb52be6 bc11b2e6 bcd7f2b5 3d80909b bd988106 3c63c103 bc3b5e69 bde51ecc 3ca47b4f bc2f1560 3b1f3079 3c2fd49e 3ca7dd3f 3d2fe34a bc335bf6 bd5f4cc6 3d257ee9 3d257a81 bcb12241 3d4e6771 3dcda1f2 bb1e8cb0 bc6a0af4 bc0dbe08 3b3e908e bd9eca9f bd9e8098 bcacd3d8 3d5e414e 3d259d38 3bf4376f 3c5a0467 bc0bdd85 3d862569 bc4c9342 3d86c74e bda0bddc bc9641d4 3cf142cb bae32a56 bc140a3b 3cc00730 bca86e1e bcb7e8ed be11e4e8 bd3f6eee 3cb534e7 3c93c53f bb04e0a1 3cd829d6 bc87da32 bd26e8f4 bb029fa4 3b727574 bd0fab7f 3d201f97 3cf7994b 3d72094d bcd8acdb bd438070 bcf736f6 bd510fea bd0ae152 3d8b0f52 3d9d6bd1 3cfe21a5 3cfafe2a 3e167b4d bcbbba95 bbb7d80f bdad12bc 3d2ce4e1 bd1e8ca0 bd265ad4 bb937764 bdb59c63 3d108b83 bdcc091c 3c53979c bcacb1bd 3dca5c16 bda5e310 3d59dfdd 3dd1f13a bcf33255 bbbf8aa5 3d5b227c 3cc08b7f bd14ad0e bc9bade1 bd2c61a9 bc92ee20 bd7c0ba7 3b42dc71 bd81be02 3cdbfb52 3c949a93 3a7c37ed bc8b06b1 bd759ada 3c51c7ef bd227dab bdc82b20 bc52b161 3cedf9ee 3d100820 bcd24f91 bb648896 bc69ac33 3d15106e bc8cca92 3c1c28ab 3d32e5f9 bb19ea4a bc60d9f5 3b9b65ef 3cd454da bd025307 3cf3a463 3c57477f 3c61992a 3cfd6242 bdcd46f2 bc985970 bd677afb bd7d7b0b 3c2c448c bc336b5e bdb89671 3d0827eb bca15548 bdc657cb bc0467cb 3cedc345 bd8b1498 bb68b584 3da78292 bddf735b bd134034 3d645b7b 3c3cf392 3d559f0a bd4f7496 3b573da1 bc2e3cb0 bd8839cb bd743b72 bc97564c bd71b084 3d85488c 3c449288 3d5f1c2b bd30127d bcb1a96c bdcd7bd6 3cd2107f bd77b876 3d220243 bcf97e94 3d37c755 bc847beb 3a0772e5 bca1a967 3c863d5e 3d4b4498 bd92870d 3bff7951 3bf43bc2 3e416150 3c6573e8 bb43d8db 3da04b34 bd4a875a bd366405 3cd75106 bcbaf853 3d2e289d 3e01fd06 bcb53ff8 3b0fc9bc 3c857fbe 3c12768c bdaa9807 bbe4592a bc844410 bbad2437 3cc7fd88 3d235505 be9091b3 3bd69cbf bc1fe8f6 bcb083b6 3dc84d0d bc5f60ac 3d052513 3d4b1f69 bd635df5 3d2073b5 bd6abf57 bdce4f10 bcdc71a6 bd3d9787 bd9d7ad3 bd157a56 3db25602 3d4ddf49 bb1928b6 3ce036f2 3cb06580 bd721058 bdc76d82 3d9c2f58 3d07aa69 3d1a9251 3d457ee9 bc33baea bcdb100e bdb7fd99 3cfe22ab 3d845397 bdb6f54d 3e26b6c7 3d093e63 3c734234 bd6127c2 bcdabf69 bd67105a 39ffd21d 3c5e2dc4 3d071cf0 bcdd0e7d bae682be bd0aba21 3d9f7d7c bc967aa6 bc0d921b 3d19feb0 bc6f4cb2 3e3a0520 3da75b5a 3b9d8629 3d973020 3b82f942 bd1d76d8 bd864c07 3d2da1b9 bd9766f6 3d247772 be04e739 bcf5f332 bd997c7d bdfdb8b7 bd11a222 bdb665b6 3d03c3f8 3e3a1731 bd64461f 3b7fc8ca be0c04e1 bd346110 3c1c5ef2 bce331ff 3c69fb01 bca8c429 bd331f74 3c9a63c1 bdb94235 bd8f84b5 bda20429 3d1c4cf2 bb02bbea 3c5ea28b 3b88ec8e 3d897bb2 bc825d33 3b19368b 3e1cad49 bd861de5 bd809aba bdea9b4f 3e1ee255 3d9f7ced 3c7d5d17 bdbfc6ae be1e3570 3cb03fc9 3d77b059 bbad1e12 bdc49f6e 3d244feb 3d25f5d5 bda44f4f 3dcd5752 3ce33ddd 3d3425de bd86b538 3afadfbe bd260b05 3db149fe bd4aa1b4 bbd14a90 3d6a2a0b bdf37f25 ba97477f bdaf7f1a 3c91c298 bcfa611b bd59b4f9 3d855e6c bc3e95df 3ddc09b7 bbac44c2 3d8c0f7a 3d3d8151 3cab9d56 3cc10d03 bb9b64f3 bd8d49f4 ba82471a bd9c9943 3dd27c43 3d3de6e3 bd5b1978 3c05697b 3cd18600 bccc9f62 bd1d9d4c 397aa4a5 3d9ec2e7 3d7681e1 3d8c6c55 bd8e4128 3b586ba2 bd5438f1 3d194447 bd689d85 bdc67665 3d7cfcfe bd8e6a0c bdb465ac bc25f443 bc790e82 3d0bcc34 3ddb90df 3e2275ac 3d29ca55 3ca7a8f2 bc25dae0 bd80de34 bd3a7f8a bcc079bb bcd83280 3d85896d bd8b288e 3cccf8b4 3e02dc64 3cb891eb bd139f27 bb4ae9c0 3cbcbc83 bc893830 bd164f14 bc0748a0 3d1850ca 3d34e0d8 bdac97f3 bc5b1d6f bda3b0b0 be15b275 397e11ec bd8233af bd2aea7c 3d97d72c bb99a55c bd113e3b 3c0a136c 3da6e33d bc04353d bd5ed231 bd2e3102 bd1481d1 bb252261 bd8b8a6b 3c807ffc 3cc2aeb7 3c31a3a1 3cfb68f4 bcff64a7 3d14ae3d 3ca9edfa bd56ec72 bc862b6a bc77b86c 3b29f0b2 3cc8a826 3c0e7cb2 3d2ce33d bd36fb6a 3d319874 3d0dc16f bcf5f663 bc2eb013 3cd5461e bc42f1d7 3c9aad54 3d07c74d bc5f4813 3bf1b5e6 bc881a2d bdbb519c 3b986e9d 3d06d5d8 bdbddba9 3b115afb 3d12c84a 3dc38d33 bd14855f 3d97ba50 b91ae07f bcf7ae93 bc6cd2d3 bc749570 3bb0ac86 3ba8ad95 3d757895 3d0137aa bd995652 bc712fcd 3d00bdf9 3d06c0e3 3bfd4140 3d088734 3d081c1c bd8f4e4a 3d8872ee bdc95b46 3c64ec11 3c476d5d bd6d2c4c 3acbe5c3 3dc2707d 3e814699 bd49aa64 bdaa1a02 3c1ebb2d 3c890630 3af89712 3dabd9ee 3cbef01b bc491c96 3e10f605 3bcee1c4 3d93f76a bc161dc8 3d64c119 be372af9 bca12278 bc485432 bce98d75 3d1668be 3d802c54 bd026e3c 3cc4aaf3 bc9cf07b bcc8d9c8 3c84c80c 3dc74def 3df5db60 bc4865d7 3cf4a61d 3d5a904d bd1383e5 bcf38117 3c87cc1e 3d39f3a9 bd6fc145 bdba4fe2 3d87d351 3c7324bb bd871d26 bd7394ff 3cef8131 3da0777c be355ba1 bd80af69 3d484553 bd240d80 3c7748c5 3d3b6e85 3d532877 3d50c4ad bd6ccb30 bdded539 bcd91b5b 3cd03339 3d19cb3f bde75487 3b80ab56 3db9248d 3ced6b1d 3d93812a bca67546 bc560091 3bcc0072 3ded8fa6 bda45056 3bbfc30c bd0405d4 3cbf8afe bd15c821 3db85e50 3cf5449b bdac15d6 bc9841e9 bd88546b 3e0adc36 3dc51da6 3cb286b3 3d6d6317 bdca3395 bb25e2a2 3dadd8c7 bccd95b8 bd8ec2ec bd894c8d bddbfa9c 3d1bf9b8 3b6071e0 bcf52d19 3d697c84 3da0656b bcb835ec be3a5125 3a9bbd7d 3da033e9 be1d38d5 3c7ed2e7 3ad45f5e 3d046cd6 3da0c735 bddf3f1e 3bb65cbe bb8262f8 3d2a32af bbb9a996 bb24cf24 bcb0e79c bdc63a4a 3d8fc652 3d4355db bd931537 bd53090a 3be8177c bcdaab6b be05f25f bd0f3c5e bda9fa25 bd9e689f 3d341a90 3ba1d445 bcd2170e 3d8cedfd bd1069f8 bdf00be2 3d0cd540 bdc5b8de bac31605 bd778934 3cb3fa9d 3e0e7996 bd52a971 3c55666c bd7591eb bbc6e477 bc063d64 bd824f10 3cff2bf3 3b26b8ed bcdaa847 3d93e8a5 bca6ec1f 3d6995e3 3dc9ef70 bd2dd01e bda2b68b 3c4e428a bc6f50f9 3d11cbec bd8bc321 3d94550e bd2e72d1 bd1ce68f 3d47b72d 3d11ed22 3d8e2e92 bd782777 3d0bfa64 bd66a4d3 bd8a9fe1 bdedcef0 bc03c875 3cfb1e83 bd7b7e4c 3d3c19b6 3e33829d bd54b158 bb0f6a60 bc605864 b9b312b1 bd209a22 bccde125 3d95af1d bdaae4d2 3ce91580 b9297620 3d837324 3bbc2786 3d646f5e 3d4c0d29 bd335fe0 bdeb56c4 bcde3aab bc005b52 bb663d9c bd6843c0 bd4b2461 bcc00824 3c018ce9 3d4056d7 3c4bb944 3d883f37 bd846a15 3d6397f1 bd513e65 3c17db7d bd673af5 3d2d385a 3d115afb 3ce0ebd6 bd528d34 bdc5ee05 bb81d7e8 bcd5cd67 3c92fa48 bca1ce91 3dfc03a8 bddf96b5 bc83c6b8 3d265bd3 bcaf670d bc26db49 3d8ff0ff bda0fe50 bd09f66d bccbc9a7 bc805e16 3ae9ecc9 3ce5efc8 bce63e09 bdd31cf6 bd9d07bd bcf6c585 b99b0263 bd29f898 3d5cb493 3d2ada4a 3d238bb9 bc13f81c bd586f63 bd73d319 3c793457 bc5d7429 bd1b0fc9 3cbd4fb4 bdea27e9 3e2a570b 3d843af1 bd9ddf96 3d6531d5 3d9a9772 3e419e34 bdc426ba bd694f11 bd498b23 bce08e52 be240c32 bdd6b485 3e12080c baeb6934 bcdf2502 3d6138a6 bd69f661 bceaa92b bd6e949c bd7b1aac ba63f2e0 3d90371c bccd8dc8 3d09c98a 3c3a843e 3e5b9da0 bd4bd4c7 3e1a58e8 bc5e001f 3c5bb8ac bd6d430c bbbc9eb6 bdb227ed bc9cdd2d 3d31b505 bd8719da 3da4d5d0 ba8f519e 3b6b515c 3cba8bab 3c1ef5a3 3d7082b8 bd488c13 bbfd4e47 3c9ac240 3d2a6d1d 3d900f26 bd161ca3 bcbfed78 bd14f3a3 bb43ea9d 3d1aa31c 3d16488b 3d56da14 be01130f bcfe2ff8 3bfad341 3ce276db 3d5ff4ac 3d40fc7d 3d33540b 3d85a101 3bc1ffd9 bd31ee4c bbd539ea bda98c89 3cc09e84 bd30793d 3ccad8ba bd7c6297 bd153571 3cef1938 3da07229 3cb09c55 3b987ecf bd968127 3a8f951c 3e5e49cc bc616853 bd85276d bcc35f96 3c8ffbce bc490a45 bd8df891 bda236ad be3687fb bcebbfac bd4e3ac3 3c90c400 bd36f170 bd85377b 3c9866f6 3bc560cd bc472b91 3c12900e bd13260b 3da95eba bdfc223d 3d39dbb8 3d4ec404 3d5c7b13 3d32d554 3d5accb0 3daad2d6 3da1fa2b 3dbfff3a b9211243 3d921020 3db8cd0d bd3d7ab2 3d9c8fec 3d8b5992 3bea66a5 be1c0287 3d8971e0 3c86ea28 3ce6bd8c 3cb72268 3deb7f01 bd1d07dd 3ceb6476 3d67c22e bd8b5e77 3cc457d9 bb8ef441 3d6d7b65 3da34dfe 3de8590a bdecfe65 3dd513e5 3dd416dd bd27a265 3d95470f bd30da81 3b6119cd bd7e9fc4 ba4da0f3 bdd3a96b 3dc7a355 bd6209f1 bd01c2aa 3c7e035f 3e1ad92a 3dc8296b 3d1c4379 3dbabd47 bcce4b4e 3d24b928 3d2f6053 bdf27ccf 3c7e7bb1 bd024078 bd81bbcb bd429cc3 3d95d284 bb46ec9f 3c33a2cc bd6d2322 3c1a5eb7 37ae0210 3e144c78 bbb7ea29 bc1dea99 bd0fa640 3cbda508 3c99fea5 3b746a64 3d51e692 bc52ba69 3c8d271d 3d07a9b4 3d86ea2f bb8afd27 3d3f32c6 3d0b779e bc88e178 3ccc90c2 bd90bde0 bd950c35 3da12df8 3dab463c bc97348c 3d283dc5 bca381f3 bd7b093f bcc1f1ea 3d99648d 3c2bf574 3d29eccd 3d90737a bc9c8c6e 3dafa49c be06717d bdba370d ba084b2f 3cf514c0 bc478410 3c230193 3d5389fb 3d2bdb0f bbc45304 3d2039d9 bd1855cd 3c94ed53 3c9c954d 3b13499e bc960d6c bc8b6c36 bc88d50b bcace9ce 3ed29434 3bedc343 bc11bb30 3cf991a3 bdbfb1ac 3cce262a bd76c7ae bb0d0f2c 3cc613f9 3ccfc68e 3cbf479a 3c63abce bd0eaacb be23f905 bd90b359 bc33c1e3 3b9154d9 3cc3245d bdbff543 bdadb4dc b8e8e7aa 3c9e9b65 3d64db9c 3da55f71 3cc89caa 3ccc6a7a 3d580aee 3d77ad75 3ce12113 bcd93f3f bc471fc3 3c5423f5 3c5c1aae 3c0024dd 3d96d07e bd13e7b0 bb81b426 3ce9429e 3d084818 3cb57dcd 3d91161a 3b2b3a7c 3e073477 3d2daf79 bda04ebc 3d7309cf bcbd5bfd bc2bd331 3da4c767 3cd710c8 bd437713 3d72cefb 3d1ae863 bd2cf925 bd04a937 3c076c2c 3da4933f bd3f49cf 3b8ac9d4 bd9e2616 bccb447d 3d74312c 3d5f4f29 be0fb3bb bd2b7f60 3d6e180d bb538601 bc2a63b9 bd87c43e 3d338d71 bcf943ca 3ce0c1e1 bd371499 bd099a81 bdb4d21c bb64cafc bd23e533 bd8e2f2f 3c60d8c6 bce98eff 3dba82df bbf293c7 be251d3d bc17d9f0 bc83d3a0 bd011b2a 3d73a38e 3da8b82f 3deaf09c 3b9e4540 bda720c5 3d476ff1 be18b9a1 bd8e096b bc462657 3cc98ffe bb32dd54 3aa5eb7d 3d36af1d bbb6c3e5 3d2b55f2 bcbb668f bd8c3a14 3d2a2dab bc7340e6 3c540756 bcf6ac95 bcaf20d2 3d02d64a bd394222 3c4a9faa bd5a59d1 bd8d87a2 3e073462 bce65442 bd8077a7 bd0364c8 bc86e506 3cebed6b bb74b96a 3cb6ac4e bcfcffcc 3d17d8f7 3cd7a41e bc995914 3a7892a3 bdc6ab20 be248443 bdae56a1 3cca13c1 bda72c67 3ba9fcbf 3dbcb0e6 3da9b781 3d313061 bd74acd6 bc53f9cc 3d24f940 bc8fa3f3 3d8d4e46 3d1aba69 3c21a5f4 3dd49bbe bc11586c bd2f5054 3d217790 bd554c4e 3c5221b4 3ce17d7e 3c94e9be bd13e8ca bcd75c29 bd889e1a bb23661d bdb93d92 bd85eebc 3c45e962 3b482a22 bd4679b4 bd4e3f67 bda09c99 bcecea2f bc18ed8f 3d8fcb39 bda4ffe0 bd5c4974 bdb9e989 bcbebf0b 3d8e8b3a bd633ebd 3b47ba5a bcc56d8b 3cde42cb 3dc8259d bdd7038b bd832077 bd63456c bd88c39e 3bd5eba1 bc10ce46 bd36ecdc bdadb152 3d23f3a1 bdae2220 3bb20c1f 3de10151 bccb76b3 3d100f60 bc70ca29 be793885 bca3d61f 3d12673c be08265d 3dd81e4f bdb33143 bc9f5f42 bddcc601 bb596b1e 3cbe2ece bcc4376a bd90bca6 bc550c8e bdd4397d ba679d58 3b1efe8e 3d110c79 3d96c7db bcee57c9 398234c2 bd00fc8e bd8e4802 3d1eaead 3d17ad02 3d230e89 bddb3396 bddd5fd3 bc4dde39 3c818836 3d20e0f5 3c7bbe4f 3cedb7fc bcc4c509 3d4337f8 bdb74a0b 3d418dad 3d6735c8 bcc00e1d bd2ed9a1 bc59892d bcdbb9f7 3dbb8572 3d5fa720 3ce33ed3 babff4ad bdaad12b 3d53cce1 bd9ec766 3d6b4e5c 3e30ab8a 3c8c59d1 3daf581c bd8c9002 bd0d7c1d 3dac50c7 3b1c8852 bd053b73 3d806c50 3ba07e00 bca6f939 bd89b91d 3c5e202a bccd03f8 3d6c3dfd 3dd55a0d 3d5b10c0 bd690d4c bdf6292c bd8a5cfe 3b0e5e2d 3bfdb980 be177cbd bdf7a0df 3d6471c5 3dde94a4 3ca4b386 3cd6142e bd3a8ffb 3d151347 bc789274 bc0697dc baa4593f 3d23220b 3d238839 3d134623 bdf9e3f6 bb9a9b8a bd2adb29 bd53d268 bd33171e 3d314364 3c66cfc5 bd22075a bd2479cb 3d8cddee be0f6888 3ce66ad7 3d9dba0c bc82c25b 3d585ea0 3d0c50be bde0f9b3 bd31e188 3c2479f8 3c85cff0 3b93374d 3ccea532 3d93c8de 3b786019 bc652dc8 bd481dc1 3d544f60 bdd4d877 bc68f2a2 bd230ba7 3c924090 bd2e6053 3a5d9af1 bd446e3b 3cfa68a4 bd0dce32 bd0753d9 bd06889f 3ced5a3f 3d0402e2 3cc51d31 bd05268e 3d8990df 3d8f9676 bdef0017 bcd79687 bca713f9 3dcdfb5e 3d053ee0 392a3b38 3c7bc43b bdab913a bb4e1728 bd7cc0e1 bccdf124 3c941921 bb9d984e bc96a39c bcd97852 be2c8016 3d53a9a8 bd0bba67 bcc091cb 3c3bfe48 3d37a546 bb63a327 bda2af72 3d20dc7b bcc91b82 3d28317f bc2a0167 3b5c7e2a bc55dffc 3e10636d 3c11b4a6 3d7f224f 3db2344a 3b2a8117 3ca7467a 3cc18e3b bc745d59 bc7ea1b4 3c4c5088 bc942ed2 3db91863 3cc278cf 3d47dce9 3d04c85f 3e220579 bca52b6b be1db7c6 bc7637b1 3dac1f4b 3c293141 bcd6f2f4 3c0ddbe1 bd5e871d 3d03ded2 bd16d00f 3b09066e bdc9e646 bcc4408c 3da0360a bd94f4f1 bcb1152c 3b395aaa bc79db59 3da08cba bd327862 3d8eb80d bd136af2 3c970535 bc8bee15 3d463f89 bcc7ffc3 ba23299d 3d80a633 3c70e488 bd0b2e87 bd028c14 bccca93b bc07a93b 3bdae01f 3c1793fd bd225361 bd495bb0 3a803773 3ce603b6 be08692a 3d1790b9 3c87c539 bc6603f3 3d0d048f 3cd3382c 3cdf35a7 bb8f8db9 bd829373 3d2857e8 3d4eb4ad bc91b089 bd9da46f 3dbe8dae bc296403 be050140 bb6259ec 3c8f3837 bcc75b1e bd851b71 bc5bb195 3dc6b140 bca990bc 3cf56b77 bc0d75cd bd46f58f 3d3fd62b 3c967a70 3dc2199d ba5eec76 bada8cf7 3d441622 3bf32ab4 bb8c4f8f bde0e93e bc037095 bceab819 bdf88fe1 3c2e741a bcbd82a5 3c06707a 3916dccf 3cee3bb7 bdbef716 bda8e7e0 3d873fa4 bcf384d6 3cc2e49f 3c9e618f 3d715c0d 3d6c19ce 3cf578ce bc02822f 3b25ea3d 3c25a303 3ca238fb 3bc3b7aa 3da1f77a 3d5652aa be2d1202 3cbea4f1 3d900685 bcf3c41c 3d0a7ad7 bdcf0c49 3d09345f bc2384ab 3b57106b bd1bb9bc bd14b987 bd6e6a71 bcc4e19b bd19e2b9 3e31c547 bbbf97ba 3a76f72e be03b056 3d2ec2f2 bd2128b0 bd3b9705 bcf09abc bb663260 bb8fe615 bd3371ff be1585d5 bda09b13 bd971bdf bd9090c4 3e044c4b bdbd2d17 bccefc4d bd381d56 bdc62650 bd4e8986 bc7faa48 bcc99771 bdbbf0d8 ba7799e1 bddeddb4 be0c6221 3cb2c6da bdcb2c40 3d760cd4 bda40e29 bc9eb38f bd86f875 3d1eb82b bdf1f6f1 bc8f7df1 3d437669 3d8ef525 3ce6acaf bc5a5a9e 3d3b05e0 3d4f5f4d bd77ec48 bdaf7dd4 bc8351b2 bdcbff96 bcf18ba4 bcbd3b73 bd5c5024 3cc49411 3d94aedb 3dbbeae5 3ca35afc 3d17cb12 3d8ee2a8 bda77777 3b8cdaed bc5056cd 3ba4e89e bd0387c5 3c622805 bc69ecd0 bc032da1 bd0a0c67 3d19fd64 b994a0f0 bd5fad1c 3ddc8648 3cfc83a8 bbc4e425 bd93bf13 ba8512d2 3c5dce42 bd092537 3b857458 bcf3cfd0 bc8e346a 3c6d7755 3bb0b93b 3c319ec3 3d07037b 3dab1fd1 bd932fbd bd01d944 bc409f8e 3d394340 bd7f1ccc bade5707 bc67e64a 3cb44bf9 bda8d0b1 3cff761b bd4e8951 3b5c0d75 bcac3109 3d443181 3d2424f0 3dcb712a bca6a29f be098922 3c720598 3d3a891f bd203d2c bd99f144 3d28b87c 3c88d193 bd525638 3bdd227d bc3748bd 3c837f8b 3c7aacc0 be2b9427 bd8f30e7 3d8923e5 3db22d41 bdd5f0ec 3d3d4339 3d05574b bd64bb33 3d51a3cb bd8a8ed9 bc8c1c52 bd55ed92 3c8a6039 3e3c514f 3d1aa090 3c532ff9 bd3399a6 3d341ab5 bdde6331 bcb3ff1d bd53c2ff bc7a7eb5 bd139a27 3d1f58d0 3c5ed361 bd4a02d8 3be5352a 3e23000f 3d32b01f bde4beda bd23065a 3d8f61d9 bcaa0c46 bd79fdfb bded7559 3d83477d be1e1b16 bd55c1cf bdf456d9 bc5f66ba 3d27644b 3c63d343 3db57588 bca48981 3d8af8ff 3db8ddfe 3e0eef59 3c79b144 3d50be6a 3cc9f371 bd456d3c 3cf23db9 3c8eb9e5 bd8c4066 bdebc3a5 bd4d4919 bd71e1c7 bd47a81b 3daa943f 3d07257d bcbeb334 bd5ccc46 bc798806 3db3287d bda414ae bd61b649 3dd8c760 3cff7ce1 bdadca38 3ba4aed8 bd53d1fc bd115df1 bced9461 bda67802 3ce32ad5 3aa85f05 3c9fb4c8 3e34115f bd727f79 3cf7f32f bce60273 3d0f31b4 bd07ca25 bdcd93d6 bd21686b bda315b8 bd9d9887 3d8a575d 3e190cf3 bd21bf0d bd049a6a 3cf2990e bbe8c364 bcdfcb5a bd4cbe06 3af749a4 3d8d21a6 bd8760e2 3cb51958 3caa742a bca6fc69 bd92f620 3d09d209 bd8296dd 3d853aec bdbdcf1e bc14ad9a 3ab302c7 be14d2ef 3b5c5458 bd83ab24 bd9c93b8 bce51639 bd0a00ef bde4a8ae bda8df98 3c6c1292 bdb9f179 3d1b6f0d bc33bcdb bd94408b 3c917eed 3d12f7d2 bd06f919 bd6f8555 bc8c2c22 bcbeabba bc2f857f bc3a5320 bd9a8320 3cc2b3d6 bcc5e661 3d1a19c8 bbefac80 3bef89a0 bd383be4 3ca1bc58 3c8d9c82 bced6f05 bcce92f0 bba7f31a 3d46d0a4 3d94e6bd bd368896 3be315cf bc0bd04b 3d24dd0c 3dc0fffb 3cbb12a2 3bddf176 bd6f0089 bd096f99 bcd1d844 3c0b9ee0 bbc3e5ad bdc9e580 bc241e2e bd62cb14 bc2ad44a bc60d48d 3d29971a 3ce5ff92 bd189b61 bc813eec 3c761f8c 3ccfd190 bd2ce07c 3c043c6b 3e0a4ccd 3e5d8871 3b19a04e b99a852e 3c911b7a 3c91ec4f 3c4a9c0b bd6f71fb 3cf074bc bd76884a bc837968 bbabf21b bc287cc2 bc4d8ebd bbc8dca2 bd1879ac bdb523d5 bd2d5907 3cf1f552 bd19f688 3d6203c5 be2b72a3 bcfeb304 bc62f3a2 3cc2bb1b 3ce974de bbdcef31 bccb3346 3d789bbf 3d7fa6b4 bd29c548 bd60bb15 3c9ce1ba bd88de5e bca23f95 bc65fe54 bc85e1a3 bae5216a bd245612 bc9b05fd 3c38d1f8 3b9a1cae bd0cebde bbd1e15f bcc941f4 bdfb84a3 bc76c736 3ca597d0 bd8c77e4 bcc020c0 bda50ad6 3d8fb13e bc4680b4 3d6fa250 3cfd5ff7 bc033dd6 3d31d063 bdddab5b 3d313b7c 3d4695a0 3d1e578f 3d60503c bd3977e3 bd58c126 bcea7066 38aaf849 3a27002c ba9a646e 3d0718c9 bc915f54 bc68f2fa bd3ec93b bd2c6e35 3d953276 bdb29fb7 3b964a39 bd2d3c4c 3d2776d0 3ceba65a ba3348c1 bd76ba20 bd6d0aed 3d2dfb62 bca64bb1 3d401fbb 3cc1c112 bcb15f32 bc7dda90 bd25a86e 39f5a83d bc1287a2 3d44695a 3dfeed45 bdd6e4ac bbc6740c 3d42223b bdafc1f3 be036539 be0a417f be4285e7 bde2cc55 bdbf48dc bd666f06 bd17a544 bd99be1f bd4a9c22 be1ecda6 3d8dd563 bbbbabe7 bb835a2f 3d4f5fbe bdcf2256 be889ca2 be20777f be069b1d 3d023597 3de5d25f 3bd2d81a be0a1271 bdd25de5 ba849a14 be2bed3b bd8472ac bdcdccaa 3cf6961a 3abdec1e bdb79ebc 3b0e4e44 bbe5c295 bcf4fdec bd7abe4f 3cfe10f1 be0896ad bde953a2 3dd0c2d9 be5f0a2f 3b672bef 3d4a8f0e 3c0ef7a5 3d9f96bd bd0df62f be2d175f bc6b1df2 3e209808 bcd2ea51 3d984060 3d9e59ab 3c4f128b bc8c8e9e bd3655ee be31c177 3d8d155b bc3542cc bde55a84 bd1e1c66 bd6b61a6 bd64fddd bda3a3cb bd1299aa bd2bbe46 bdf51cb3 3e49e7e3 3c824956 bda85036 3da37178 3d2e834c 3dadd192 3cccb86f 3d62105e bd43eb04 3e0b6f30 3d0d89dd 3ad63d57 bd6c77ed bd9bb9f4 bc082ab7 bdb63f76 bcacfd4d bc759f4e 3c2350c0 3a7fa452 be4b857b 3d2034da 3dc725f5 3caeebd2 bda431fb 3d0ceb56 bd957250 bbf0441c bda69016 bd03e147 3e3a6013 bd8850f4 bdac62a7 bd6c1b19 bc21ef0e 3cf1581b 3cdf4f4f bd8257c7 3cbff68a bd1b45e8 3c881168 3d2f3697 3ae59bf8 bd318793 3cf5f579 bd0dba67 bca8c523 3cd7dcdd bd9948cb 3cbe5533 3df916b3 bb02e4ef bdb536ff 3cb6bbd8 bca934c8 3d705759 3c969a7a 3ca314b3 3dbeb239 3e6293d8 bdb1e1e9 3c6fec28 3d83006b bd9f7779 bcf8d086 bc3379d8 3d67e25d bde3ef56 bc4e30ec bd63da56 3bcb2b07 bd4d3b22 3d014275 bd6bf20e 3c758f47 3d2dae6d bd09e6bc 3c4f741c 3cb63c88 bd2cbae5 bd44ea4e bda46b68 3ce29f0f bc91c586 bce0d235 bb934ab6 bc4fd9d9 3ca25a09 3ba54938 bbb8189d bd9c5858 3c11eae0 bb58fce0 3cee70ac bd7ad442 bd3a5b76 bd85f7ed bab71d20 3ba0bdad bc3ac19f bd343dbc 3d06fc33 bd08cc3e 3b86754d bc0a3b14 bc113fd0 3daeb51f bdb6d499 bd7935a3 bc60f5d5 bcb7837d bd6cb8f5 3dd5eab9 3e006136 bd9490a2 3d618d52 bcb46711 bc85c8c0 bc1bf19e bc18bf7e bd732e00 3d5a6b5f 3d9366c3 3cf80d12 bd89d69d 3ca8642b 3cba1b7a 3d34e90f bde25af0 bd8db43e bd16f75b 3b81f7cd 3d38b67b 3b875362 3d1f4a88 bcc94d51 3d584f8e be2fbde4 bc0eeb09 bc911411 bdd16023 bd29bfc4 bcc295dc 3da1c4e1 bda9ea84 bc467c46 3d9db345 bccd0f5c be061a38 3baefab2 bdde3254 3d767ae0 3d993f5b 3d945b31 3da1dad6 be0698a0 3cfef077 bd66136f bd87b821 bd9985e8 3d0d6ef5 bd1ebad0 be022b6a 3cb01fd8 bd3eae02 3daa3012 3d05f1ca 3d1a63b2 3d1d4139 bd944493 bdcf8920 bc9edde2 bd3c802b bcaa041a 3c7ec527 bd4baf8b bd8b765c bcf821bf bd8e5327 bc1e0953 bd00c192 bc969a43 bb1844e1 bcef97fc 3c6a6220 3dd48dee 3c03c9eb bc6d615f 3dda0453 bcc9deb4 be0fd23e 3cbba0a1 bca78a35 bd0c1714 bc32da35 3b9fbea9 3d2e9601 3c8287c4 3c489f85 3cb89aa9 3cf48246 bddd570a bc80fe44 3cd0954b bcb588f3 3c10603a 3d122996 3c35d527 bd03eaec 3c6644f2 3d90fc27 bc828dc8 bda45780 3c1ddcf5 bc5eebb0 3cac69b9 bc5d8fd3 3bb4fde1 3d75fa6f bdacf6c1 bdb1ea9b be1998c0 bd4b2365 bbe7dc99 3bc237ee 3c90f3e9 bda894f8 bd25e46c 3d26aa62 3d2a2cae 3cf2d204 bb9948c4 3c284e1b bd663741 3bf1b537 3c1bebb7 bd080030 bc7fbb64 bcab19c7 bc6ebc98 bd295b41 bc226415 bb7876b1 bc8fa6d1 bbe84442 bcfffe07 bb5e98ca bd3ca05c bdd0a3ba bb613240 bd5c664b bdb135de bd3df58e 3ccb250c 3e104f2e 3d052d27 3dacc759 3d9ca7fb bba35a14 3c57552f 3ca0058b 3d14d7aa bd3134d8 bb5e25de 3c8422b6 3d3f14d9 3d985345 3cf380f4 bdfd0848 bd9f45e5 3a9e6134 3cc3e621 bd7c3f62 bd393479 3e11b022 bc39509c bccff0c7 3ce12d62 3c7c64a9 3b64a006 bcbccd7d 3ca2d873 bca6b2f8 3d2c69ca bc828106 3d96c3fe bbe8fa87 bc28d9f8 be83bc56 3ce89ba2 baa3d653 bde8fe3e 3ce2f63b 3d67f7d3 bac1c7e7 3c36e380 3d584e1c bda2fa8a 3d4cc221 bc3e31a5 bd1d5823 bbf2cb5c bcffc725 bd5aaea4 bc0351bf 3d230def 3cc1ab30 3c270ebc 3e6f14f7 bd821d01 3d2553d1 ba26f592 3d4b0283 bcb6367e 3c8931a4 3d8190a3 3cc1d31b bd8d4ccd bdc949f5 bd9be952 3d7e051d 3b9277be bd76fd67 3d5ce581 bc90fd6a 3d3d917b bccc1fb8 ba9f34b9 3d9c9c69 3d4aa2c9 3cb388c5 3c33b5b9 bd34aea0 bd2f1d89 bd288857 bbdfff67 3cc811b8 bdab7c36 3c4e164f 3c8c8980 bd62edbc 3bbc87d5 bd7f2e46 bc96b8b5 3ab46c4d 3d7b3054 3c94243b 3d1291e1 3d22c90a bd1544ba 3a93882d bd513248 be98d629 bd339d50 bd5554b0 bd67085f bd8d19ca bd25b86c bc8709dd 3c7c09e1 3c442b6d bdace5c7 bd668360 3d277396 bcc43cf8 bd5a839a bd62d8d6 bc54a431 bbc1ab4b 3bc420ee bd6205d3 bcc12bd7 3e0a456c bd60539c 3cbb7c36 3cbde754 3d7bc374 bd89695b 3d8d6072 3deb809f bd761d15 bc63fe71 bb1877c0 bd9d41fe 3b87a7e6 3c00db7f bbc71ffd bd6b144d 3d37f5f7 3d0ca3ca bce993fe bcc9505f 3d62f818 3d10d6ca 3d9051db 3c093e91 3e18d8a1 3c7e3e83 bd0b2993 bd9e65b9 3c8cf5cc bd4f708e bcb4d7e0 3d4b26dd 3d8ebad9 bd048ccd 3c48bb32 ba296dc6 3966736b 3d32a070 bd37af82 3d8def6a bc2f8439 bc0dd75a 3c9e73a0 bd48280e bc2d32eb bb7bae5a 3ddde1a8 bca95be4 bd9a923a 3d483934 bd6c16ba bc388c80 bd12b213 3b3bb45d 3d2bc0e6 b9f4bc3e 3d8b1422 bc99eb28 3d8c958e 3cf53656 3db8fc09 3d981e91 bcc26207 bc64faae bce47a31 bc79a303 3b8f5b82 3dadd29e bcb1a58c bc7bfe49 bd48a16e bd3a3ccc bd382a44 ba21075e bb424ecb bd4b06a7 3e0bb907 3cd18bc8 3d46e67b bc8a1b2e 3c596aa8 bd7ef8fe bc659c1f bc92133f bc603649 3ded84c3 3d4e8ae4 bd44d293 bd42b59a 3d8e9e23 bcf01988 3d2b4b0c bccc0fe9 3d3f0a7a bd442e17 bd71afb0 bd79e352 3d6d0db2 bbb88581 3da04d52 bc9463da 3c293ec9 bd14126b 3d2353d4 3d00670d 3d19cf68 3ce91d4d bc84e499 bd0b531f bc38cbc7 3cd30ce0 3d8d42fb bc949970 3d7a696d bc6a78ad bd29e50f 3d535454 bd22e9f4 3d071e94 3cb4764c 3e4a366d 3955af74 3cc2e5f7 bc918987 3d56c455 3d8d05ca bca58e55 3d38ed87 3bb97c2b 3cfb5af2 bd7adad3 3c80a572 3d51a280 bb9baa22 3c45d39e 3e302129 bcedf377 bce300bd bcca43d2 bca2c5f4 3c7e4bfd 3d060416 3e14659d bc49b991 bd374191 3d1d77cf 3d2f36e4 bcfdd664 3b1b8afd bc9a5414 3d1ce703 3d405109 bdaebc89 bc06573c 3e0b8f04 ba980070 3d0586f2 3c098e7c 3d5231e5 3cf4c03d bd4c9958 3c06078d 3d63de0c 3d85bb67 3de05f0a bd152da2 3d16758c bd8e48ca bdc7e7c7 bc550055 3db3db39 3d769de4 3b6f8c68 3de2b932 3a444548 3cfd53ba 3c1a63b5 3d9e5dd0 bb8d1f72 bce9f8ac bb21d8fd bcf78414 bd33fb20 3cdbb6af bd7ba3e6 be432abb 3d2379a0 3b96fd5d bd58aae6 bd2ed4d0 3d6cf765 bdadee00 bd24bbf2 3d668095 bd860f6a bd21f7a2 bd923730 3cc27b93 bd71b097 3c56bb06 bca1f035 bcbb5b20 baa2fdb7 3c7c7819 bc2105d8 3db8bb5e 3d91e9d9 bb0fb173 bdba71e7 3cead407 bd174cc8 bdd7e5c4 3cd8f82b bd83a6fb 3cb1172c 3d482719 bcfde3ea bdcd983c bdce9ab7 bccddaf3 bdd2099d bc20882a 3da18913 3cc0fe6f bd307f45 bc9669ff bdb0839b bc258113 bdf1478b bd3568e0 be27e95a 3daf5eb7 3df49a5a bccb7913 bd402004 3c9b1c8f bddaf553 bd8abce3 bb9a7ebc 3d43066e bcb41f7a 3d43a38b 3d81fdda bd31b461 3d9465e5 bd08d002 bdeda4a0 bc3fc25d bd8b1f53 3e0a5dc0 bcad9956 bd760080 bc365d67 3ddbc01e bd465d45 bcd4e4da be1c9931 3b8cba93 bd6c8b2b 3d00a291 bce5bd5b 3d62eceb bd68f4b6 bdeecd92 3d6d0090 bd01e2d2 3cfa9a36 3d4ee847 3d97da85 3c8dacd2 3c5c18c1 3c82c6e8 3dea1d12 3d2e4c9b bdfc0b18 bcbcea53 bdb5642f 3d853367 bdbd4097 bd828eae bc252820 bd170070 3d0af0af bca04158 bd8cb48d bd7e02d4 bc9b2123 bbf8206f bd14e8cc 3d483df3 bd248963 3b24944c bd8a60b9 bc596de2 be195c02 bce06552 3e0ca66d 3c40104b bd87d417 3e009650 3e060a41 bd1e59b3 bcce3282 3d5f719f 3d488f69 3daeac8f bcea489b bd29581a bd5b7db4 bd831e03 3c809b35 bd30fcab 3c1dca75 3cb11b6b bd87f362 3bda7ddd 3caca18a 3d1909aa bd4f3ee3 3d985f26 3e0e03d1 bcbfd68d bd7eea99 bc4cf2d6 bc3a9b6d bc8122dd 3e0c2c5a bbd55b7b bcdceaef 3c937cf1 3bdceeb3 bda00d04 3d2d3e49 bd29829f bd6b32b4 bbcfcf11 3d6a94b2 3cd910a0 3cf0eef4 bd277ef6 3d1acdf8 bd0bcff7 39e8be9a 3dde89b2 3e007453 bc2b2d39 bd67cc79 3dadb0f9 ba847ee0 3d52af1e 3b089472 3c62c7e4 3d8635e2 3c7b884e bd102e64 bb3e69e0 3d4385f7 3d7ef604 bd0cfc01 bb6fc58f 3d6d80de bd1d1734 3d0f3d5a 3c5d3f8f bd562187 3db00fcb 3c52a6ea bd088086 bd4c3271 3cb05534 3d0444c9 3d8d8c35 3daaefb4 3d53c676 3b13c734 bcc52d7d bdb6fcfa 3d109647 3cec1f64 3d9795e3 bd5c6dc6 bd59f0cf 3b5715c0 3c26e545 bd6a6a68 398a0cf6 3d955bd0 3d1d4dac bd210d69 bb5565c0 bd059e01 bcb443d4 be3dd8a9 bd112299 3c9fb735 be8f53b0 3c64ed52 3d2d2afd bdacbf49 3d03d205 3d5e4f60 bc4a582b bbb97f86 bddf1b0c 3d3bafd5 3d6a4ff3 bdbc963c bc5cd572 3da8872c bab0cc45 be15baa4 3be5b4a6 bda0584e bdb0f86e bdd1f0eb bcc16af7 bd1733ec ba1610f5 3b87c54d bc26aa78 bc651cd2 3d06d2f0 3c39161b 3d96e6d8 be49e775 bd107cdc 3a3e00ab 3d6de756 bd495301 bd426fd1 bcf6f4a4 bd7df5e7 be274521 3bdaf858 3c3a4bb5 bcd14a12 3bb57f68 ba24ceb2 bdf0bab9 bdd37840 bcf09f1e bcd7403c bd31c0e6 3b0a0346 3dbff21c 3ddccf0b 3ce499e4 bce34802 bd9ab90e bd787387 bd2f4d16 bd02f48c 3e0418b9 bd5d97f9 bcd5fccf bbfc1d84 bd049e2b bc7d8c0e 3ce93c11 3c207048 3dc5ef29 bdb210c6 bd019289 3b1658a7 bdc0f5d4 bd16f063 bbeaf786 bdf491d8 bd39c130 3d200079 3e38ab67 bb60c597 bc229b18 bc0a2d6c bd4b629f 3af6dbce 3d8bcdbc bbda1b50 bc4e48a2 3d665b6b 3dc7e18f 3cf932dc 3aa45425 bd1f5c2c bce75086 bd56366a 3d07d2f6 3c22502c 3dac87c3 bcea4697 3d1ebacc bba63a3f 3c98c827 be15172e bcdfd8aa b9df9611 3c032668 bd5cf22e 3debb236 3ca74da0 3c2b373b 3c2a4c00 bdd0aea0 bd858c38 3d30c830 bd09d2e5 3d8633ec 3d0003ea bd5b3adb bd6699df 3c873acd bda691d0 3c969ca6 3cb5c00f 3c610089 3d4217eb 3e6142ac 3d6de95e bd33aff7 bccc938f bd2850f1 bcf7628c bcb7e826 bc70c599 3ae4a841 3d9c12f8 3d86206e 3cb70900 bcce3277 3c988a13 bccc333f bdaf722c bd8b7462 bc9f39f5 bd095217 bcd38b9d bdb4653d bdaf86d2 3c6cf01a 3d879ee8 bdc35868 bce97758 bcdc829f 3d7a09bc 3d9bb09f 3d09992e bda59a89 bb51e5bc 3b69f983 3b0d8b20 be13f18a 3c81deaf 3dda3a35 bd9cb1f6 bd103d9a bd38a2f5 bd38fc1a bdeb0a5a be231814 3d108d3f bd2790c5 3bdceb23 3bbf0bf2 bd38fc67 3944703b bd9d88bc bd816bb8 3be16985 3cb1f145 3ddcb83d 3c21d03f 3cdd06ed bd088fd7 3de96f56 bd3e3bc3 bcc858a2 bd6c027c 3d7ab924 bd49b847 3da27dc9 bc6941bf 3dfdae7c 3d35abf8 bddf592b 3d9aa0ac bcaa8051 bcae6d19 bd7a7392 bd649611 3c544152 3c6cd931 bbe6c778 3e64c266 3c7aea36 3cd64ca1 bd51f93b 3d7917d1 bcff8849 bd2584da bca19e38 bd3b450c bcf039df 3db91d05 3e17d66c bd5813ce bcadf31e 3d7d1765 3c694603 bdf71e53 bc9adab5 bc954a27 3d4ccd31 bcb2f0e2 3cbb4259 3d1a2367 bd1ba312 bd5273df bc405745 bd8a9b67 bbdf823b bd6bd108 3c08e80b bcb974c7 3d2ed8cf 3d25d966 3b3e021c bcff9890 bc52da6a bcca3c99 bd83e4a2 bd8f0d8c bc011e8f bcce99ac 3bc9821b bcd6fc8e bdae255a bc22fbf1 3c652921 bd1f5b22 ba71d9c2 bd8159d9 bc999768 bc4330ec bd84c08d bd1fd080 bd6bd112 3c34f05d bd9d7a9f 3d17e967 3a9daf33 3c4259ed bd01073b bca2477c 3ccef0d8 3b51ed7f 3aea764e 3db8c31e 3c91c84a bcde762d bd7ef34e 3d3b75fb 3d1f0017 3d228d50 bdbb7e28 bd49bdb3 3d753545 3e3186d0 bc767d98 bb53849a bde8e947 3c9462d1 3c66d7e3 3d744652 bd2415d8 bcc2509b bd039daf bd48bbd0 3e072fcc bdb40602 bd99e6b1 bba0b3f0 3d5d73cf bd5dcdde 3c814e70 3c0786c5 bd05e848 3c335787 3cc996b2 3d13250a 3cb54560 3d541f41 bbb4b853 3da486c7 3cd6cb7d 3d35929e 3d01ceb9 bcad293f 3cc6f5f9 bcc80eeb bdb1604b bbcbb3a6 3cfad0a3 bc457e92 bcac1efb 3d91a9fa 3c494d98 3bd44b57 bb75067b 3dc64345 bdce18ee bd2db9e5 bccc74e8 bd7bab79 3c141042 3cf09034 bcb3e811 bd859b4e 3d1852f8 3ceeb21f 3ce5406d bd9116f4 3d4fb94d 3d94b852 bc9c29bc 3d168a17 bda1e424 bcd877a1 3c97b78f 3d1a15f4 bb12584f 3bb22a1f 3d0b55e0 bc8952bb 3d8263bc 3d7e3500 3cde7348 bd4aea54 bdadc26c bd00af46 bd1a3b32 3c1aa11f be0ff247 3dc556af bc9483c1 3d21506f bd570e49 3cee3a07 bc8b8962 3d8004de bc3bd545 3d489582 bd8f8e5b 3c378797 3aacec7c 3d22f3df 3d65f6de bd0bee43 3c9c4df1 bd9a7af9 3cd57878 bd320429 bd071b9e bd4ee331 bd41c25e 3d95ade5 3e3c4145 3d89fa46 3c3814b1 3cd9b5b9 bd35675c 3cf152e1 3e26b9b7 3dd18963 bd95e504 3e0f7325 bd8493c1 bd967f71 3d297d85 3d41ffd2 3ccdc5fc bc9ed7ad bdc076e9 3d4d791d 3d84b2d4 3c302941 3d495557 bd3d46d1 3dfc7557 3d858d6b 3d58bb12 bccdcec5 3b3007bd bd97174b 3db85e86 3d00b7d5 bc99f44b bc64bd09 3d4de25c bd131cc1 bd178b0e 3a1305de 3d6c9dd6 3d9d6c9e bd476a31 bd751484 3d57c81a bd918d59 3e156ce5 bc843485 bc09ec5d 3cc58d40 bcad894d bcfd4673 39af8c9b 3d8efa1e bc150deb 3d85b301 3de83226 bc5ceeb0 bcdf2e76 bd2c2331 3a29492d 3e088958 3d499dfb bc9d2a4d 3b485dac 3d6d16e5 bd3b738d 3d13781f 3d728353 3d779c57 3dc22216 3bb2b590 bcf42c02 bcc3cdf1 bd4b3235 bbfa171c bd27d7c7 bb883d0e 3d87f9c3 bc8063aa 3cdeebb4 3b944a42 3cf3e8ec 3b9a9dea bc9d5b4a 3caa0521 bce0394d bda76208 bcdd4f53 bcd6d212 3d14607b 3cc79b36 3d7c4750 3d126f88 3d131ffd bd239afc bba0afc2 bc14b654 bddb78a1 bd8637d6 bd6e84ef 3cc1a27d 3d790407 be183de9 3e13d2ad 3d593676 3d49910c bd343281 3afc5197 bc939c05 bcfef466 3dd0a137 3cfe6d98 bdafdec1 bd404e22 3d2c1f7a bc91de38 bd31b365 3cad3b51 bd773ee7 3c90f46b 3ddce054 3d509dbe bd39a6b5 3e21b405 bdbc97c2 bd658471 3d2af2c7 3cbdcba3 3ca10e47 babf58e8 bddf1957 bd7ac3ff bd5f3601 bdd2d18a 3d56f74a 3cb57535 3d5c18a1 3c946131 bbc7a7c3
body.stage1.5.4.weight 64 3d8577e8 3dc3fe19 3dfe1c43 3df02029 3de908cf 3e0fdf07 3d987ae1 3d8aa520 3e12d39b 3e1a8dc2 3e05e051 3dd1e8d3 3df547b5 3d10e5b7 3e0606e1 3e091e08 3dc571c0 3da87133 3e00cba4 3e118d1a 3deaa0fa 3e074f4f 3dac2dd8 3dddaf9c 3dfc4a4d 3dff92b9 3e16204e 3d92c1ea 3dfa38f9 3d78af5b 3d86cbb3 3d3bfde1 3e18c40b 3de0e030 3de76439 3ddfe0d6 3df1fdf0 3e11516d 3dca0047 3e163dd6 3deeeacd 3df74147 3dabea55 3e60eeea 3e1bb42f 3db8164d 3e1ee3ac 3dd30a59 3df6c2c7 3e077893 3db164c5 3dd9c491 3d53c8fe 3e16308f 3dfc3a71 3da52775 3e30e483 3e17a706 3e06ae08 3d8654e8 3dd9b12b 3d513b13 3e0659a8 3e0e7dc2
body.stage1.5.4.bias 64 3dad8cfa bd9728d6 bd5b2379 3c626429 bb966b84 bd925e1b 3e27afd4 3d977ba1 bd71598d bd226a54 3ac38471 3d1c3e6a 3c8c9acd 3e22cc05 bdf8dcbd bd57c2f3 3dcca004 3da2467f 3cd34bd2 bd7b2d56 bc6ebe95 bd86d64f 3d0a3299 bde94c3f bdd8b2ba bd021a8d bd87b7ad 3e0655a7 bb73caad 3dd895ca 3e2276e5 3e2bd5c7 bb54a66f 3c91f1be 3da59d55 bca74b11 3d30019a bda060d5 3d0597e5 3d05d26b 3c55a108 3c89f0d8 3df0fa49 bdc1b2a8 bdaa4961 3bf3b1b8 3b01e74a 3d396aff 3d0efdc7 bd20e316 3dacfefa 3d250985 3dfc6b6b bc9b72c5 bd5effab 3d0dade5 3cd1f8fc bd4de3da bd830242 3dc6ae3a bcb43d42 3e53d7d5 bd15c70c bd8e0d48
body.stage1.5.4.running_mean 64 3d0118b9 3cd6350e bd199cff b9a3db6d 3cb9daf7 bbb9a989 3d5de9e9 3c9286d7 bcf56179 bc5106e4 bd5bca4c bd8cb753 3deb21ea 3d748970 bd79eeb7 bd5f5a1c bcdba7f6 bcc4ebc6 bc39ae81 3c91fb8b bc752aa7 bd16188e 3db2aa86 bce6f042 bdc09464 bd392e4e 3c8225ad bd9837b4 3d6dbf34 3d1c3805 bb89d15a bd4850b8 be727dc7 3c0d466b bc959a68 3d311517 bcdbe070 be3f2af1 bbbd6d06 bb537013 bdc82239 39d47202 ba777348 be1862d2 bdbfcdfb bbc9b7fc bdb0ba5e bd4c6002 3cbacd17 bd90e0ab 3d995ce7 3d172174 bd954783 bc52766c 3d80c5aa 3daea6d9 be43ee25 bcb35176 bd13d96e bcf88fab 3d705e67 3cf0c2d1 3ddef8e6 bc84ecde
body.stage1.5.4.running_var 64 3b303f39 3b48e3fc 3ba0bdbd 3b81b20e 3b8ef8a2 3b971151 3b674717 3bc6eee8 3c05f794 3bf5841b 3b8b4e03 3af37cf5 3c10625a 3b45ae21 3bc55be9 3b477ff2 3beacaab 3b862e5e 3bafc42f 3b7f4009 3b557985 3b849479 3b464ef5 3b969fad 3ba7ca60 3b60b1b3 3b9d3ee7 3b9699d7 3ba1f868 3b9aa3e9 3b6115be 3b93f909 3c056fc8 3b96d0ba 3b4f7243 3b44d0f4 3be5b6e0 3bb7c0fa 3b74c864 3c5cb29f 3bcb577f 3b76ed06 3b120bff 3c7445d7 3b96305c 3baf0490 3c13a98b 3ba6be81 3ba7c792 3bc3d5ea 3bc3903a 3afc4b30 3b70a713 3bcbd72a 3b7470a6 3b552c48 3c4a9b04 3bed9847 3bc00c07 3be61b0f 3b034d96 3b780629 3b9497e3 3b9b7c9f
body.stage1.5.4.num_batches_tracked 1 47aff500
